
#ifdef __has_attribute
#define HAVE_ATTRIBUTE(x) __has_attribute(x)
#else
#define HAVE_ATTRIBUTE(x) 0
#endif
#if HAVE_ATTRIBUTE(aligned) || (defined(__GNUC__) && !defined(__clang__))
#define DATA_ALIGN_ATTRIBUTE __attribute__((aligned(4)))
#else
#define DATA_ALIGN_ATTRIBUTE
#endif

const unsigned char model_data[] DATA_ALIGN_ATTRIBUTE = {0x1c, 0x00, 0x00, 0x00, 0x54, 0x46, 0x4c, 0x33, 0x14, 0x00, 0x20, 0x00, 0x04, 0x00, 0x08, 0x00, 0x0c, 0x00, 0x10, 0x00, 0x14, 0x00, 0x00, 0x00, 0x18, 0x00, 0x1c, 0x00, 0x14, 0x00, 0x00, 0x00, 0x03, 0x00, 0x00, 0x00, 0x18, 0x00, 0x00, 0x00, 0x20, 0x00, 0x00, 0x00, 0xb0, 0x00, 0x00, 0x00, 0x20, 0x00, 0x00, 0x00, 0x58, 0x00, 0x00, 0x00, 0x50, 0x00, 0x00, 0x00, 0x02, 0x00, 0x00, 0x00, 0x8c, 0x03, 0x00, 0x00, 0x70, 0x01, 0x00, 0x00, 0x01, 0x00, 0x00, 0x00, 0xb4, 0x00, 0x00, 0x00, 0x0d, 0x00, 0x00, 0x00, 0xe4, 0x1d, 0x00, 0x00, 0xe0, 0x1d, 0x00, 0x00, 0x8c, 0x1c, 0x00, 0x00, 0xe8, 0x1b, 0x00, 0x00, 0x74, 0x1b, 0x00, 0x00, 0x24, 0x0b, 0x00, 0x00, 0xd0, 0x04, 0x00, 0x00, 0xec, 0x03, 0x00, 0x00, 0xc4, 0x1d, 0x00, 0x00, 0xc0, 0x1d, 0x00, 0x00, 0xbc, 0x1d, 0x00, 0x00, 0xb8, 0x1d, 0x00, 0x00, 0x3c, 0x00, 0x00, 0x00, 0x00, 0x00, 0x00, 0x00, 0x01, 0x00, 0x00, 0x00, 0x0c, 0x00, 0x00, 0x00, 0x08, 0x00, 0x0c, 0x00, 0x04, 0x00, 0x08, 0x00, 0x08, 0x00, 0x00, 0x00, 0x08, 0x00, 0x00, 0x00, 0x0c, 0x00, 0x00, 0x00, 0x13, 0x00, 0x00, 0x00, 0x6d, 0x69, 0x6e, 0x5f, 0x72, 0x75, 0x6e, 0x74, 0x69, 0x6d, 0x65, 0x5f, 0x76, 0x65, 0x72, 0x73, 0x69, 0x6f, 0x6e, 0x00, 0xde, 0xe3, 0xff, 0xff, 0x04, 0x00, 0x00, 0x00, 0x10, 0x00, 0x00, 0x00, 0x31, 0x2e, 0x35, 0x2e, 0x30, 0x00, 0x00, 0x00, 0x00, 0x00, 0x00, 0x00, 0x00, 0x00, 0x00, 0x00, 0x0f, 0x00, 0x00, 0x00, 0x4d, 0x4c, 0x49, 0x52, 0x20, 0x43, 0x6f, 0x6e, 0x76, 0x65, 0x72, 0x74, 0x65, 0x64, 0x2e, 0x00, 0x00, 0x00, 0x0e, 0x00, 0x18, 0x00, 0x04, 0x00, 0x08, 0x00, 0x0c, 0x00, 0x10, 0x00, 0x14, 0x00, 0x0e, 0x00, 0x00, 0x00, 0x14, 0x00, 0x00, 0x00, 0x40, 0x00, 0x00, 0x00, 0x44, 0x00, 0x00, 0x00, 0x48, 0x00, 0x00, 0x00, 0x58, 0x00, 0x00, 0x00, 0x0b, 0x00, 0x00, 0x00, 0xd4, 0x1c, 0x00, 0x00, 0x64, 0x1c, 0x00, 0x00, 0x60, 0x1b, 0x00, 0x00, 0xc8, 0x1a, 0x00, 0x00, 0x6c, 0x1a, 0x00, 0x00, 0x18, 0x0a, 0x00, 0x00, 0xc4, 0x03, 0x00, 0x00, 0xa4, 0x02, 0x00, 0x00, 0xb0, 0x01, 0x00, 0x00, 0xf8, 0x00, 0x00, 0x00, 0x80, 0x00, 0x00, 0x00, 0x01, 0x00, 0x00, 0x00, 0x00, 0x00, 0x00, 0x00, 0x01, 0x00, 0x00, 0x00, 0x0a, 0x00, 0x00, 0x00, 0x04, 0x00, 0x00, 0x00, 0x28, 0x02, 0x00, 0x00, 0x58, 0x01, 0x00, 0x00, 0xa4, 0x00, 0x00, 0x00, 0x1c, 0x00, 0x00, 0x00, 0x04, 0x00, 0x00, 0x00, 0x6d, 0x61, 0x69, 0x6e, 0x00, 0x00, 0x0e, 0x00, 0x18, 0x00, 0x08, 0x00, 0x0c, 0x00, 0x10, 0x00, 0x07, 0x00, 0x14, 0x00, 0x0e, 0x00, 0x00, 0x00, 0x00, 0x00, 0x00, 0x09, 0x01, 0x00, 0x00, 0x00, 0x1c, 0x00, 0x00, 0x00, 0x10, 0x00, 0x00, 0x00, 0x04, 0x00, 0x00, 0x00, 0xba, 0xe4, 0xff, 0xff, 0x00, 0x00, 0x80, 0x3f, 0x01, 0x00, 0x00, 0x00, 0x0a, 0x00, 0x00, 0x00, 0x01, 0x00, 0x00, 0x00, 0x09, 0x00, 0x00, 0x00, 0xf4, 0xfd, 0xff, 0xff, 0x19, 0x00, 0x00, 0x00, 0x00, 0x00, 0x00, 0x19, 0x01, 0x00, 0x00, 0x00, 0xe8, 0xe3, 0xff, 0xff, 0x14, 0x00, 0x00, 0x00, 0x0b, 0x00, 0x00, 0x00, 0x24, 0x00, 0x00, 0x00, 0x30, 0x00, 0x00, 0x00, 0x10, 0x00, 0x00, 0x00, 0x02, 0x00, 0x00, 0x00, 0x01, 0x00, 0x00, 0x00, 0x03, 0x00, 0x00, 0x00, 0x02, 0x00, 0x00, 0x00, 0xff, 0xff, 0xff, 0xff, 0x03, 0x00, 0x00, 0x00, 0x08, 0x00, 0x00, 0x00, 0x49, 0x64, 0x65, 0x6e, 0x74, 0x69, 0x74, 0x79, 0x00, 0x00, 0x00, 0x00, 0xd0, 0xe3, 0xff, 0xff, 0x5e, 0xff, 0xff, 0xff, 0x00, 0x00, 0x00, 0x08, 0x18, 0x00, 0x00, 0x00, 0x0c, 0x00, 0x00, 0x00, 0x04, 0x00, 0x00, 0x00, 0xe8, 0xe3, 0xff, 0xff, 0x01, 0x00, 0x00, 0x00, 0x09, 0x00, 0x00, 0x00, 0x03, 0x00, 0x00, 0x00, 0x08, 0x00, 0x00, 0x00, 0x06, 0x00, 0x00, 0x00, 0x03, 0x00, 0x00, 0x00, 0x5c, 0xe4, 0xff, 0xff, 0x14, 0x00, 0x00, 0x00, 0x0a, 0x00, 0x00, 0x00, 0x24, 0x00, 0x00, 0x00, 0x5c, 0x00, 0x00, 0x00, 0x10, 0x00, 0x00, 0x00, 0x02, 0x00, 0x00, 0x00, 0x01, 0x00, 0x00, 0x00, 0x03, 0x00, 0x00, 0x00, 0x02, 0x00, 0x00, 0x00, 0xff, 0xff, 0xff, 0xff, 0x03, 0x00, 0x00, 0x00, 0x34, 0x00, 0x00, 0x00, 0x73, 0x65, 0x71, 0x75, 0x65, 0x6e, 0x74, 0x69, 0x61, 0x6c, 0x2f, 0x64, 0x65, 0x6e, 0x73, 0x65, 0x5f, 0x32, 0x2f, 0x4d, 0x61, 0x74, 0x4d, 0x75, 0x6c, 0x3b, 0x73, 0x65, 0x71, 0x75, 0x65, 0x6e, 0x74, 0x69, 0x61, 0x6c, 0x2f, 0x64, 0x65, 0x6e, 0x73, 0x65, 0x5f, 0x32, 0x2f, 0x42, 0x69, 0x61, 0x73, 0x41, 0x64, 0x64, 0x00, 0x00, 0x00, 0x00, 0xcc, 0xe5, 0xff, 0xff, 0x00, 0x00, 0x0e, 0x00, 0x14, 0x00, 0x00, 0x00, 0x08, 0x00, 0x0c, 0x00, 0x07, 0x00, 0x10, 0x00, 0x0e, 0x00, 0x00, 0x00, 0x00, 0x00, 0x00, 0x08, 0x1c, 0x00, 0x00, 0x00, 0x10, 0x00, 0x00, 0x00, 0x04, 0x00, 0x00, 0x00, 0x32, 0xff, 0xff, 0xff, 0x00, 0x00, 0x00, 0x01, 0x01, 0x00, 0x00, 0x00, 0x08, 0x00, 0x00, 0x00, 0x03, 0x00, 0x00, 0x00, 0x07, 0x00, 0x00, 0x00, 0x05, 0x00, 0x00, 0x00, 0x02, 0x00, 0x00, 0x00, 0x10, 0xe5, 0xff, 0xff, 0x14, 0x00, 0x00, 0x00, 0x09, 0x00, 0x00, 0x00, 0x24, 0x00, 0x00, 0x00, 0x74, 0x00, 0x00, 0x00, 0x10, 0x00, 0x00, 0x00, 0x02, 0x00, 0x00, 0x00, 0x01, 0x00, 0x00, 0x00, 0x0c, 0x00, 0x00, 0x00, 0x02, 0x00, 0x00, 0x00, 0xff, 0xff, 0xff, 0xff, 0x0c, 0x00, 0x00, 0x00, 0x4c, 0x00, 0x00, 0x00, 0x73, 0x65, 0x71, 0x75, 0x65, 0x6e, 0x74, 0x69, 0x61, 0x6c, 0x2f, 0x64, 0x65, 0x6e, 0x73, 0x65, 0x5f, 0x31, 0x2f, 0x4d, 0x61, 0x74, 0x4d, 0x75, 0x6c, 0x3b, 0x73, 0x65, 0x71, 0x75, 0x65, 0x6e, 0x74, 0x69, 0x61, 0x6c, 0x2f, 0x64, 0x65, 0x6e, 0x73, 0x65, 0x5f, 0x31, 0x2f, 0x42, 0x69, 0x61, 0x73, 0x41, 0x64, 0x64, 0x3b, 0x73, 0x65, 0x71, 0x75, 0x65, 0x6e, 0x74, 0x69, 0x61, 0x6c, 0x2f, 0x64, 0x65, 0x6e, 0x73, 0x65, 0x5f, 0x31, 0x2f, 0x52, 0x65, 0x6c, 0x75, 0x00, 0x00, 0x00, 0x00, 0x98, 0xe6, 0xff, 0xff, 0x00, 0x00, 0x0e, 0x00, 0x16, 0x00, 0x00, 0x00, 0x08, 0x00, 0x0c, 0x00, 0x07, 0x00, 0x10, 0x00, 0x0e, 0x00, 0x00, 0x00, 0x00, 0x00, 0x00, 0x08, 0x24, 0x00, 0x00, 0x00, 0x18, 0x00, 0x00, 0x00, 0x0c, 0x00, 0x00, 0x00, 0x00, 0x00, 0x06, 0x00, 0x08, 0x00, 0x07, 0x00, 0x06, 0x00, 0x00, 0x00, 0x00, 0x00, 0x00, 0x01, 0x01, 0x00, 0x00, 0x00, 0x07, 0x00, 0x00, 0x00, 0x03, 0x00, 0x00, 0x00, 0x00, 0x00, 0x00, 0x00, 0x04, 0x00, 0x00, 0x00, 0x01, 0x00, 0x00, 0x00, 0x0c, 0x00, 0x10, 0x00, 0x0b, 0x00, 0x00, 0x00, 0x0c, 0x00, 0x04, 0x00, 0x0c, 0x00, 0x00, 0x00, 0x09, 0x00, 0x00, 0x00, 0x00, 0x00, 0x00, 0x09, 0x01, 0x00, 0x00, 0x00, 0x00, 0xe6, 0xff, 0xff, 0x14, 0x00, 0x00, 0x00, 0x08, 0x00, 0x00, 0x00, 0x24, 0x00, 0x00, 0x00, 0x6c, 0x00, 0x00, 0x00, 0x10, 0x00, 0x00, 0x00, 0x02, 0x00, 0x00, 0x00, 0x01, 0x00, 0x00, 0x00, 0x20, 0x00, 0x00, 0x00, 0x02, 0x00, 0x00, 0x00, 0xff, 0xff, 0xff, 0xff, 0x20, 0x00, 0x00, 0x00, 0x46, 0x00, 0x00, 0x00, 0x73, 0x65, 0x71, 0x75, 0x65, 0x6e, 0x74, 0x69, 0x61, 0x6c, 0x2f, 0x64, 0x65, 0x6e, 0x73, 0x65, 0x2f, 0x4d, 0x61, 0x74, 0x4d, 0x75, 0x6c, 0x3b, 0x73, 0x65, 0x71, 0x75, 0x65, 0x6e, 0x74, 0x69, 0x61, 0x6c, 0x2f, 0x64, 0x65, 0x6e, 0x73, 0x65, 0x2f, 0x42, 0x69, 0x61, 0x73, 0x41, 0x64, 0x64, 0x3b, 0x73, 0x65, 0x71, 0x75, 0x65, 0x6e, 0x74, 0x69, 0x61, 0x6c, 0x2f, 0x64, 0x65, 0x6e, 0x73, 0x65, 0x2f, 0x52, 0x65, 0x6c, 0x75, 0x00, 0x00, 0x24, 0xe6, 0xff, 0xff, 0x7a, 0xe7, 0xff, 0xff, 0x04, 0x00, 0x00, 0x00, 0x90, 0x00, 0x00, 0x00, 0x41, 0xc4, 0x8a, 0x3e, 0x45, 0x3a, 0x2b, 0xbe, 0x03, 0x77, 0xea, 0xbe, 0xaa, 0xa3, 0x70, 0xbd, 0x1a, 0x6e, 0xd0, 0x3e, 0x25, 0xe3, 0x21, 0x3d, 0x2c, 0xda, 0x80, 0xbe, 0xf2, 0x4a, 0x77, 0xbe, 0x9f, 0x8b, 0xa0, 0xbb, 0x11, 0xe6, 0xa7, 0xbe, 0x5e, 0x70, 0x3f, 0xbe, 0xd8, 0xd5, 0xe7, 0x3e, 0x08, 0x90, 0x02, 0x3e, 0x7f, 0x59, 0x8a, 0xbd, 0xe2, 0x71, 0x1a, 0xbf, 0x25, 0x00, 0x0b, 0x3e, 0xbd, 0xba, 0xaa, 0xbe, 0x6a, 0xae, 0xdc, 0x3e, 0x31, 0x25, 0x2d, 0x3e, 0x66, 0xdb, 0x8f, 0x3e, 0x69, 0x68, 0xaf, 0x3e, 0x25, 0x59, 0x0e, 0xbf, 0x82, 0x0a, 0xf6, 0xbe, 0xc9, 0x32, 0xf0, 0x3e, 0xbb, 0x31, 0x09, 0xbf, 0xbd, 0xa4, 0x97, 0xbd, 0xe3, 0xe1, 0xa3, 0xbe, 0xa3, 0xa6, 0xe3, 0xbe, 0xa4, 0x3c, 0x9f, 0x3e, 0x52, 0xb1, 0xfc, 0x3e, 0x43, 0x12, 0x53, 0x3e, 0x1a, 0x46, 0xd2, 0xbe, 0x8f, 0x8b, 0xf8, 0x3e, 0x95, 0x14, 0x9f, 0xbe, 0xa8, 0x56, 0x30, 0xbe, 0x95, 0x41, 0x0f, 0x3f, 0x82, 0xe7, 0xff, 0xff, 0x10, 0x00, 0x00, 0x00, 0x07, 0x00, 0x00, 0x00, 0x14, 0x00, 0x00, 0x00, 0x30, 0x00, 0x00, 0x00, 0x02, 0x00, 0x00, 0x00, 0x03, 0x00, 0x00, 0x00, 0x0c, 0x00, 0x00, 0x00, 0x19, 0x00, 0x00, 0x00, 0x73, 0x65, 0x71, 0x75, 0x65, 0x6e, 0x74, 0x69, 0x61, 0x6c, 0x2f, 0x64, 0x65, 0x6e, 0x73, 0x65, 0x5f, 0x32, 0x2f, 0x4d, 0x61, 0x74, 0x4d, 0x75, 0x6c, 0x00, 0x00, 0x00, 0x04, 0xe7, 0xff, 0xff, 0x5a, 0xe8, 0xff, 0xff, 0x04, 0x00, 0x00, 0x00, 0x00, 0x06, 0x00, 0x00, 0xb4, 0xc5, 0xdb, 0x3d, 0x65, 0xd5, 0x8f, 0xbe, 0x6f, 0x4f, 0x9e, 0x3e, 0xc0, 0x79, 0x67, 0xbd, 0x90, 0xb0, 0xcb, 0xbd, 0x5b, 0x8f, 0xa3, 0xbe, 0x31, 0x1d, 0x50, 0xbc, 0x36, 0xd5, 0x79, 0x3e, 0xd7, 0x54, 0x6b, 0x3e, 0x41, 0x65, 0x82, 0x3e, 0x4b, 0xa2, 0x5d, 0xbe, 0x80, 0x18, 0x08, 0xbe, 0x9c, 0xaf, 0x54, 0xbd, 0xb4, 0x5b, 0x68, 0xbe, 0xbf, 0xa8, 0x43, 0xbe, 0xc0, 0x4d, 0xb8, 0xbd, 0xfe, 0x61, 0x3c, 0x3e, 0xeb, 0xdc, 0x44, 0xbe, 0x3b, 0x2e, 0x6f, 0xbc, 0x54, 0x8a, 0xd2, 0x3d, 0x23, 0x2e, 0xad, 0xbe, 0xab, 0xb1, 0x29, 0xbc, 0xbc, 0xfd, 0x85, 0xbe, 0x8c, 0x8a, 0x55, 0x3e, 0x34, 0x62, 0xa0, 0xbe, 0x37, 0x25, 0x2b, 0xbe, 0x73, 0xb4, 0x8e, 0xbc, 0x84, 0x16, 0xb4, 0xbe, 0x64, 0x4f, 0x9f, 0x3e, 0xa7, 0x0c, 0x87, 0xbe, 0x03, 0x86, 0x1e, 0x3e, 0x85, 0x34, 0x1d, 0x3e, 0xa6, 0x47, 0xde, 0xbb, 0x40, 0xcf, 0xd2, 0x3c, 0x6c, 0xd8, 0x92, 0x3d, 0x9a, 0x15, 0x9e, 0x3e, 0x7c, 0xd9, 0xfb, 0x3d, 0x75, 0x4a, 0x64, 0x3e, 0xa4, 0xeb, 0x44, 0xbb, 0xc3, 0x60, 0x1f, 0x3e, 0xf1, 0x76, 0x06, 0x3e, 0xe9, 0xa6, 0x19, 0xbe, 0x59, 0x9f, 0xc8, 0x3d, 0x41, 0xbb, 0x60, 0x3e, 0xfe, 0xd1, 0x00, 0xbf, 0x0e, 0xe1, 0x0b, 0xbc, 0x02, 0xe3, 0x3d, 0x3e, 0x4e, 0x3c, 0xfc, 0x3c, 0x8f, 0x30, 0x7a, 0xbd, 0x10, 0xd1, 0x7c, 0x3d, 0xe5, 0x92, 0x51, 0xbe, 0x20, 0xae, 0x69, 0x3c, 0xf5, 0xd2, 0x6c, 0xbd, 0x20, 0x44, 0x79, 0xbe, 0x00, 0xae, 0xda, 0x3a, 0x43, 0x44, 0x32, 0xbd, 0x54, 0x8f, 0x47, 0x3c, 0x93, 0xdd, 0x94, 0xbe, 0x5b, 0x5d, 0x5b, 0xbe, 0x9c, 0x8f, 0x4a, 0xbe, 0x28, 0x76, 0x17, 0xbe, 0xe9, 0x6e, 0x28, 0xbe, 0xa3, 0x73, 0x9e, 0x3e, 0x12, 0xef, 0xef, 0x3d, 0x70, 0x6b, 0x94, 0x3e, 0x5a, 0x85, 0x22, 0x3e, 0x84, 0xd0, 0xa7, 0x3d, 0x4b, 0x3a, 0x77, 0xba, 0x8c, 0x2e, 0x7c, 0xbe, 0x6b, 0xba, 0x5c, 0x3e, 0x9c, 0xc2, 0xdf, 0x3d, 0x9f, 0x48, 0x97, 0xbb, 0x11, 0x74, 0x96, 0xbe, 0xb4, 0x3e, 0x89, 0xbe, 0x05, 0x96, 0x92, 0xbd, 0x8b, 0xb3, 0x02, 0xbe, 0x22, 0x8f, 0x41, 0xbe, 0x07, 0x24, 0x97, 0x3e, 0x9d, 0x0e, 0x29, 0xbe, 0xa5, 0x97, 0x05, 0xbd, 0x80, 0x4a, 0xc0, 0xbd, 0xc2, 0x23, 0x58, 0x3e, 0x6b, 0xf4, 0x3a, 0x3e, 0x92, 0x53, 0x6b, 0x3e, 0xcc, 0x3a, 0x16, 0xbd, 0x51, 0x2b, 0xb6, 0xbe, 0x00, 0x5a, 0x1b, 0x3a, 0x80, 0xac, 0x66, 0xbd, 0xa4, 0x36, 0x36, 0xbe, 0x5c, 0x52, 0xb8, 0x3d, 0x46, 0x39, 0x4b, 0xbe, 0x55, 0x6b, 0x8c, 0xbe, 0x05, 0x94, 0x18, 0xbe, 0x8d, 0x90, 0xba, 0xbe, 0x77, 0x49, 0x34, 0x3d, 0xc2, 0xbe, 0x84, 0xbd, 0x71, 0x32, 0x53, 0xbe, 0xe1, 0xce, 0x8d, 0x3e, 0xfe, 0xa8, 0x72, 0x3e, 0x9b, 0xc5, 0x3d, 0xbd, 0xa4, 0xbe, 0x98, 0xbe, 0x90, 0xd8, 0x8f, 0xbe, 0x68, 0x83, 0x45, 0xbc, 0x83, 0xed, 0x00, 0xbe, 0xd8, 0x4e, 0x9d, 0x3e, 0xe0, 0x32, 0x76, 0x3d, 0x5c, 0xf6, 0x71, 0xbb, 0x79, 0xaf, 0xe8, 0x3c, 0x25, 0x9f, 0xc9, 0xb9, 0x25, 0x86, 0x04, 0xbd, 0x66, 0x8f, 0x72, 0x3c, 0x47, 0x3c, 0xa4, 0xbe, 0x1d, 0xc2, 0x97, 0x3d, 0xac, 0x3a, 0x3f, 0xbe, 0xe1, 0x24, 0x86, 0x3e, 0x20, 0xc5, 0x20, 0xbd, 0x88, 0xc9, 0xca, 0xbd, 0xb0, 0x68, 0x89, 0xbe, 0x50, 0xb4, 0xfc, 0x3d, 0x86, 0xdd, 0x00, 0xbc, 0xa3, 0x4a, 0x9b, 0xbe, 0x70, 0x7a, 0xa1, 0x3d, 0x0d, 0x2a, 0xb6, 0xbc, 0xc0, 0xd6, 0xe2, 0xbc, 0x6b, 0xe5, 0xaa, 0x3e, 0x43, 0xe4, 0xbb, 0x3e, 0x60, 0x15, 0x52, 0xbd, 0x3c, 0xdc, 0x74, 0x3e, 0x9d, 0xf4, 0x16, 0x3e, 0xd8, 0x7f, 0xf2, 0xbd, 0x5e, 0x9c, 0x7b, 0x3e, 0xae, 0x53, 0xc8, 0xbd, 0x48, 0x90, 0x21, 0xbe, 0x02, 0x9d, 0x7e, 0x3e, 0xe7, 0xec, 0x1d, 0x3d, 0x89, 0xd5, 0x8d, 0x3d, 0xa3, 0xfb, 0x09, 0xbd, 0xfd, 0x80, 0xa5, 0xbe, 0x85, 0x65, 0x40, 0x3e, 0x20, 0x77, 0xd7, 0x3e, 0x4f, 0xe3, 0x52, 0xbd, 0xae, 0xba, 0xae, 0xbd, 0x67, 0xc5, 0x8a, 0xbe, 0x2c, 0x12, 0xc4, 0xbe, 0x07, 0x42, 0x9c, 0xbe, 0xa0, 0x69, 0xc5, 0xbc, 0x92, 0xf5, 0x98, 0xbd, 0x06, 0x79, 0x1f, 0x3e, 0xc5, 0x96, 0x46, 0x3e, 0xdd, 0x20, 0x40, 0xbe, 0x0e, 0x89, 0x5f, 0x3e, 0xe1, 0x06, 0x60, 0x3e, 0x04, 0x9d, 0xf6, 0xbd, 0x54, 0x35, 0xaa, 0xbd, 0x8c, 0x1b, 0x55, 0xbd, 0xf0, 0x1a, 0x95, 0xbe, 0x19, 0xa8, 0x0c, 0xbe, 0x2c, 0x2f, 0x16, 0xbe, 0x98, 0x96, 0x01, 0x3e, 0xa6, 0xcb, 0xc1, 0x3d, 0xa3, 0xfc, 0x75, 0x3e, 0xee, 0xb6, 0x76, 0xbe, 0x9f, 0x12, 0x94, 0x3e, 0xb4, 0xba, 0xb5, 0x3d, 0xc1, 0x74, 0x65, 0x3e, 0x54, 0xfa, 0x91, 0x3e, 0xe2, 0x3e, 0x67, 0xbe, 0xbc, 0xb9, 0x4a, 0x3e, 0x13, 0x92, 0x13, 0xbe, 0xe9, 0x38, 0x63, 0x3e, 0xc1, 0x72, 0x80, 0xbc, 0x28, 0x73, 0x0e, 0x3d, 0x50, 0x70, 0x91, 0xbe, 0xab, 0x83, 0x56, 0xbe, 0x8a, 0x9e, 0x52, 0x3e, 0xf6, 0xcb, 0xa9, 0xba, 0xea, 0xf5, 0x74, 0xbe, 0x0e, 0x50, 0xb3, 0x3e, 0x33, 0x60, 0x85, 0x3e, 0xac, 0x7d, 0x8a, 0xbe, 0x02, 0xe0, 0x38, 0x3e, 0x23, 0x62, 0x70, 0x3d, 0x93, 0x75, 0x64, 0xbe, 0x86, 0x89, 0x67, 0x3e, 0x3f, 0x3c, 0x2c, 0xbe, 0x90, 0xc9, 0xde, 0xbd, 0x5b, 0x8a, 0xef, 0x3d, 0x77, 0xc1, 0xb6, 0xbe, 0x2d, 0xd7, 0xd3, 0x3c, 0x44, 0x8a, 0x7c, 0xbe, 0x63, 0x74, 0x1d, 0x3e, 0x6c, 0xa7, 0x14, 0xbe, 0x55, 0x82, 0x8e, 0x3e, 0x30, 0xe7, 0x2f, 0xbd, 0x59, 0xdc, 0xb7, 0xbe, 0x5e, 0x32, 0x76, 0xbe, 0xc0, 0x5f, 0x90, 0xbe, 0x69, 0x3a, 0xb1, 0x3d, 0x4d, 0x0f, 0x87, 0xbe, 0x21, 0x71, 0xb4, 0xbd, 0x8d, 0x73, 0xbe, 0xbd, 0xd1, 0x67, 0xbe, 0xbd, 0x11, 0xbe, 0x7b, 0x3e, 0x9c, 0xbe, 0x58, 0x3e, 0x5e, 0xbf, 0x22, 0xbe, 0xe2, 0x4b, 0xb8, 0x3d, 0x61, 0xee, 0xa2, 0x3d, 0x1f, 0x8f, 0x3e, 0xbe, 0xd9, 0x8e, 0x5a, 0xbe, 0x83, 0xc1, 0x5e, 0xbe, 0xca, 0xd6, 0x7e, 0x3e, 0x86, 0xc3, 0x1e, 0xbe, 0x84, 0xa0, 0xcf, 0xbe, 0x98, 0x50, 0x65, 0xbe, 0xcd, 0xef, 0x07, 0xbe, 0x55, 0x79, 0xb1, 0xbe, 0xff, 0x2a, 0xe9, 0xbd, 0xd4, 0x51, 0xe1, 0xbd, 0xf1, 0xa9, 0xa5, 0xbc, 0xbd, 0xb8, 0xfa, 0x3d, 0x17, 0x62, 0xca, 0x3d, 0x08, 0xca, 0x81, 0xbd, 0x11, 0x05, 0x5c, 0xbe, 0xa6, 0xd3, 0x43, 0x3e, 0x00, 0x67, 0x2d, 0x3e, 0x33, 0x91, 0x97, 0x3e, 0x00, 0x61, 0xba, 0xba, 0x28, 0x6a, 0x6d, 0xbe, 0xc6, 0xb5, 0xac, 0xbb, 0x99, 0x06, 0x5e, 0x3d, 0xb8, 0xd2, 0x90, 0xbe, 0x70, 0x2d, 0x2e, 0xbe, 0xd8, 0x80, 0x4c, 0x3e, 0xfa, 0x36, 0x63, 0x3e, 0x88, 0x31, 0xa0, 0xbe, 0xd4, 0xfb, 0xc8, 0x3d, 0xd1, 0x2c, 0x10, 0xbe, 0x5a, 0x4c, 0xfa, 0x3c, 0xce, 0x87, 0x36, 0xbe, 0x8f, 0x60, 0xbe, 0xbe, 0x60, 0xcc, 0xa8, 0xbe, 0x4e, 0x46, 0x3a, 0x3e, 0x56, 0xba, 0x0f, 0x3e, 0x0e, 0x01, 0x15, 0x3e, 0x58, 0x4a, 0x38, 0x3e, 0x92, 0x53, 0x26, 0xbe, 0x1f, 0xc5, 0x16, 0xbe, 0x1d, 0xb4, 0x71, 0xbe, 0x2f, 0xdd, 0x83, 0xbe, 0x0e, 0xf1, 0x7f, 0x3e, 0x30, 0x48, 0xc7, 0xbc, 0x98, 0x93, 0xb0, 0xbe, 0xd3, 0x3c, 0x89, 0xbe, 0x85, 0xdb, 0x00, 0xbe, 0x2d, 0x75, 0x56, 0x3d, 0x03, 0x57, 0xaf, 0x3e, 0x74, 0x88, 0x1c, 0xbe, 0xfa, 0xde, 0x88, 0xbe, 0x38, 0xfe, 0x62, 0x3d, 0x0e, 0x01, 0xa5, 0x3e, 0x90, 0xd6, 0x47, 0x3e, 0x4e, 0x4a, 0x74, 0x3d, 0x45, 0xcd, 0x87, 0xbe, 0xc6, 0x40, 0x5a, 0x3e, 0x58, 0x94, 0xcd, 0x3c, 0xa8, 0x9c, 0x9d, 0xbe, 0x92, 0x59, 0x51, 0x3e, 0x7a, 0xb9, 0x1b, 0xbe, 0x90, 0x82, 0xbf, 0xba, 0x94, 0x6f, 0x8d, 0xbe, 0x61, 0x03, 0x9c, 0xbe, 0x5a, 0xea, 0x16, 0xbe, 0x1b, 0xd3, 0x1f, 0x3e, 0x8b, 0xcb, 0xd0, 0xbd, 0x9c, 0x3a, 0xa6, 0x3e, 0x6e, 0xad, 0x5f, 0xbe, 0x4a, 0x40, 0x2a, 0x3e, 0x44, 0x56, 0xcf, 0xbe, 0x19, 0x75, 0xa8, 0x3e, 0xd6, 0xe8, 0xc1, 0xbe, 0x00, 0x84, 0x6f, 0xbe, 0x36, 0x78, 0x26, 0xbe, 0xc1, 0xe8, 0x91, 0x3e, 0xf3, 0xbc, 0x58, 0x3e, 0x69, 0x96, 0x1d, 0xbe, 0x58, 0xa9, 0x1d, 0x3d, 0x4e, 0x14, 0xcc, 0xbd, 0x4d, 0xac, 0x8b, 0x3d, 0x95, 0xbf, 0xa9, 0xbc, 0x2a, 0xde, 0x8e, 0xbe, 0x12, 0x61, 0x0c, 0x3e, 0x54, 0x17, 0xb8, 0xbe, 0x7b, 0x46, 0x0c, 0x3f, 0x9e, 0x8f, 0x5c, 0x3e, 0xba, 0x62, 0xa3, 0x3e, 0xfe, 0x1b, 0x8b, 0xbe, 0xb0, 0xdd, 0x78, 0xbc, 0x80, 0xcb, 0x70, 0xbc, 0xb9, 0xdd, 0xc0, 0x3e, 0xae, 0x53, 0x20, 0xbe, 0x21, 0x16, 0xa4, 0x3e, 0xea, 0x88, 0x62, 0x3e, 0x86, 0xee, 0xdf, 0x3d, 0xac, 0x30, 0xb6, 0xbc, 0xfe, 0xea, 0x80, 0x3e, 0xea, 0x3f, 0x82, 0xbe, 0xf4, 0x8d, 0x9d, 0x3e, 0x54, 0x58, 0x8c, 0xbe, 0xad, 0xee, 0x0e, 0x3e, 0xfb, 0x48, 0x20, 0x3e, 0xab, 0x78, 0x83, 0x3e, 0x7a, 0x67, 0xb2, 0xbd, 0x0d, 0x40, 0xe5, 0xbc, 0x02, 0x8e, 0x3e, 0x3e, 0xfb, 0xbb, 0x28, 0x3e, 0xeb, 0xbd, 0x6d, 0x3e, 0xea, 0x86, 0x89, 0xbe, 0x5e, 0x08, 0x90, 0xbe, 0x86, 0x1f, 0x92, 0xbe, 0x01, 0xb9, 0x66, 0x3e, 0x2b, 0xbe, 0x3b, 0xbe, 0xa8, 0x3d, 0x64, 0x3d, 0xea, 0x6c, 0x44, 0x3e, 0xad, 0xbc, 0x3c, 0xba, 0x0b, 0x64, 0xa5, 0x3c, 0x93, 0x1f, 0x8f, 0xbe, 0x0c, 0xb0, 0xc3, 0x3e, 0xf0, 0xa9, 0xab, 0xbd, 0xf4, 0x66, 0xb4, 0x3e, 0x98, 0xa9, 0x9c, 0xbd, 0x82, 0x6d, 0xab, 0x3e, 0x7c, 0x90, 0x91, 0xbd, 0xe7, 0x07, 0xdc, 0x3e, 0xd3, 0x01, 0x20, 0x3e, 0x07, 0x65, 0x8c, 0xbe, 0xc2, 0x9c, 0xff, 0xbb, 0xe4, 0xf7, 0x36, 0x3e, 0x30, 0x9c, 0xdd, 0x3c, 0x23, 0xb4, 0x0b, 0xbe, 0x24, 0x9d, 0x96, 0x3d, 0x87, 0x92, 0xf2, 0xbd, 0x71, 0x8b, 0x8c, 0x3e, 0xca, 0x5d, 0x55, 0x3e, 0xe2, 0xb0, 0x8f, 0x3d, 0x58, 0x44, 0xd5, 0xbc, 0x5c, 0x3f, 0x8e, 0xbd, 0x9b, 0xf6, 0x9a, 0xbd, 0x6b, 0x37, 0x2a, 0x3e, 0x45, 0x22, 0xf6, 0x3d, 0x91, 0xf1, 0xa0, 0xbe, 0xe1, 0x52, 0x9f, 0x3e, 0x7d, 0xdb, 0x06, 0xbe, 0x07, 0x36, 0x01, 0x3e, 0xad, 0x07, 0xa7, 0x3e, 0x0b, 0xa3, 0x9a, 0x3e, 0xd0, 0x24, 0xa8, 0x3e, 0x72, 0x02, 0xcd, 0x3e, 0x8a, 0xf7, 0x95, 0xbe, 0xd4, 0x5e, 0xc7, 0x3d, 0x56, 0x7d, 0x6e, 0x3d, 0x15, 0x6c, 0x43, 0xbe, 0x62, 0x25, 0x42, 0xbd, 0xb3, 0xa2, 0x0e, 0x3e, 0x80, 0xac, 0xc6, 0x3e, 0xe7, 0x47, 0xa5, 0x3d, 0xa5, 0x42, 0x8f, 0x3e, 0x47, 0xfe, 0x96, 0x3e, 0x82, 0x83, 0x11, 0xbc, 0x05, 0x65, 0xb9, 0x3c, 0x01, 0x38, 0x01, 0xbc, 0x13, 0x89, 0x1c, 0x3e, 0x9e, 0xf6, 0x5c, 0xbe, 0xaa, 0x27, 0xdc, 0x3d, 0x02, 0x0a, 0x18, 0x3e, 0xf4, 0xbc, 0x90, 0xbd, 0x54, 0x69, 0x9e, 0xbe, 0x7a, 0x28, 0x93, 0xbc, 0xda, 0xb8, 0x5e, 0x3e, 0xae, 0xc1, 0x4f, 0xbe, 0xc5, 0xf3, 0x30, 0xbe, 0xc4, 0x5b, 0xa2, 0xbe, 0xf4, 0x8d, 0xbc, 0xbe, 0xf4, 0xd5, 0xb8, 0x3d, 0x64, 0x24, 0xb2, 0x3e, 0xd2, 0xed, 0xff, 0xff, 0x10, 0x00, 0x00, 0x00, 0x06, 0x00, 0x00, 0x00, 0x14, 0x00, 0x00, 0x00, 0x30, 0x00, 0x00, 0x00, 0x02, 0x00, 0x00, 0x00, 0x0c, 0x00, 0x00, 0x00, 0x20, 0x00, 0x00, 0x00, 0x19, 0x00, 0x00, 0x00, 0x73, 0x65, 0x71, 0x75, 0x65, 0x6e, 0x74, 0x69, 0x61, 0x6c, 0x2f, 0x64, 0x65, 0x6e, 0x73, 0x65, 0x5f, 0x31, 0x2f, 0x4d, 0x61, 0x74, 0x4d, 0x75, 0x6c, 0x00, 0x00, 0x00, 0x54, 0xed, 0xff, 0xff, 0xaa, 0xee, 0xff, 0xff, 0x04, 0x00, 0x00, 0x00, 0x00, 0x10, 0x00, 0x00, 0xe1, 0x16, 0xeb, 0xbc, 0x22, 0x77, 0x76, 0x3d, 0xf9, 0xf9, 0xfc, 0xbd, 0x90, 0x76, 0x10, 0x3e, 0x38, 0x33, 0x09, 0x3e, 0xe8, 0xeb, 0x15, 0xbe, 0x1a, 0x10, 0xb0, 0xbe, 0x35, 0x87, 0x44, 0x3e, 0xeb, 0x73, 0x88, 0x3d, 0xe4, 0xc1, 0x54, 0x3e, 0x9f, 0xb2, 0x4e, 0xbe, 0xb1, 0x80, 0x79, 0xbc, 0xb5, 0x82, 0xaf, 0xbe, 0x11, 0x5e, 0x18, 0x3e, 0x4a, 0xfe, 0x2e, 0x3e, 0x1b, 0xf6, 0x83, 0x3d, 0xf5, 0xaf, 0xad, 0xbe, 0x85, 0xbc, 0xde, 0xbd, 0xca, 0x30, 0xdf, 0x3d, 0x57, 0xc7, 0x27, 0x3e, 0xbd, 0x43, 0x98, 0xbe, 0x01, 0x93, 0x88, 0x3d, 0x13, 0xb2, 0x7f, 0xbe, 0xf1, 0x5a, 0x82, 0xbe, 0xe2, 0xbd, 0x92, 0xbd, 0xcd, 0xf3, 0xbb, 0xbd, 0xda, 0x35, 0xd1, 0x3c, 0x8d, 0x90, 0x9b, 0xbe, 0x11, 0x40, 0x65, 0x3d, 0x4f, 0xae, 0x2f, 0x3e, 0xca, 0xcb, 0x8c, 0x3c, 0x75, 0x8d, 0x36, 0xbe, 0xa8, 0xf8, 0x13, 0xbd, 0x10, 0x22, 0x84, 0x3c, 0x92, 0xe4, 0x46, 0xbe, 0xc4, 0xda, 0x7d, 0xbe, 0x08, 0x32, 0x6d, 0xbe, 0x3f, 0xb1, 0x7e, 0xbe, 0xeb, 0x24, 0x65, 0xbe, 0xa0, 0x9c, 0x91, 0xbe, 0x48, 0xc1, 0x2d, 0x3e, 0x64, 0xeb, 0xa2, 0xbd, 0x60, 0x25, 0x19, 0x3d, 0x61, 0xb5, 0x8f, 0x3e, 0x62, 0xd7, 0xba, 0xbd, 0x0e, 0x01, 0x81, 0xbd, 0x80, 0xf5, 0xfb, 0x3d, 0x80, 0x7d, 0xa4, 0x3c, 0x98, 0xd7, 0x18, 0x3e, 0x9e, 0x7d, 0x52, 0x3e, 0x81, 0xe8, 0x64, 0xbe, 0x03, 0xb6, 0x85, 0xbe, 0x7c, 0x29, 0x76, 0xbd, 0x28, 0xce, 0x24, 0x3d, 0xd0, 0xf2, 0xdd, 0xbc, 0xc0, 0x72, 0xe6, 0xbb, 0x18, 0x0b, 0x85, 0xbe, 0x34, 0x42, 0x6e, 0xbd, 0x33, 0x47, 0x94, 0xbe, 0xe4, 0xbc, 0x85, 0xbe, 0x43, 0x9c, 0x32, 0xbe, 0xac, 0xbb, 0x74, 0xbd, 0xc8, 0x27, 0xc1, 0x3d, 0xde, 0x46, 0xa4, 0xbd, 0x7a, 0x81, 0xb8, 0xbd, 0x00, 0x6f, 0x64, 0xbb, 0x5c, 0xe3, 0x66, 0xbe, 0x50, 0xbf, 0x81, 0xbe, 0xb2, 0xa5, 0x64, 0xbe, 0x08, 0xbe, 0x21, 0xbd, 0x0d, 0x1a, 0x86, 0xbe, 0x68, 0x04, 0x1e, 0x3e, 0xec, 0x76, 0xc1, 0x3d, 0x4e, 0xb1, 0x18, 0x3e, 0xd2, 0x76, 0x40, 0xbe, 0x04, 0xd5, 0xe1, 0xbd, 0xb2, 0x07, 0xc8, 0xbd, 0xce, 0x0c, 0x4a, 0xbe, 0x2a, 0xfd, 0x83, 0xbe, 0x38, 0x62, 0x34, 0x3e, 0xfc, 0xc3, 0x67, 0xbe, 0xac, 0x06, 0xec, 0x3d, 0x10, 0xcf, 0xcc, 0xbd, 0x40, 0x1d, 0xd4, 0x3d, 0x60, 0xb7, 0x8e, 0xbc, 0xfe, 0x34, 0xd2, 0xbd, 0x34, 0x18, 0x3e, 0x3e, 0x40, 0xea, 0xcd, 0x3c, 0x18, 0xf3, 0x12, 0xbe, 0xd8, 0x37, 0x29, 0x3d, 0x1a, 0x4b, 0xbd, 0xbd, 0x44, 0xd6, 0x30, 0xbe, 0x8f, 0x0f, 0x96, 0x3e, 0x3d, 0x04, 0x58, 0xbe, 0x86, 0xdd, 0xfd, 0xbd, 0xcd, 0xb5, 0x16, 0xbe, 0xa7, 0x80, 0x49, 0xbd, 0x7c, 0xe3, 0x4e, 0xbe, 0x39, 0x3b, 0x6c, 0x3d, 0x55, 0x1e, 0x21, 0x3d, 0x54, 0x73, 0x43, 0xbe, 0xb4, 0x98, 0xcc, 0xbc, 0x8a, 0x94, 0x84, 0xbd, 0x60, 0xf9, 0xa3, 0xbe, 0xb7, 0x1c, 0x36, 0xbd, 0x75, 0x29, 0xf3, 0x3c, 0xdd, 0x62, 0x48, 0xbe, 0xff, 0x9a, 0xa9, 0xbe, 0xa0, 0x54, 0x3a, 0xbe, 0xbc, 0x52, 0xc5, 0xbc, 0x15, 0x77, 0x12, 0x3e, 0xda, 0x75, 0x7a, 0x3e, 0xae, 0x2d, 0x0d, 0x3d, 0x19, 0x64, 0x4b, 0x3e, 0xbc, 0x48, 0x3a, 0xbe, 0x30, 0x80, 0xc1, 0xbb, 0x7f, 0x1b, 0x5e, 0x3e, 0x2a, 0xbf, 0x57, 0x3e, 0xef, 0x93, 0x35, 0x3e, 0x28, 0x1b, 0x74, 0x3c, 0x90, 0x16, 0x08, 0x3d, 0x42, 0x4c, 0xa5, 0xbe, 0x98, 0x7d, 0x00, 0xbe, 0x19, 0xda, 0x82, 0xbd, 0x43, 0x40, 0xa6, 0xbe, 0x89, 0x5d, 0x8e, 0xbe, 0x86, 0x67, 0xa7, 0xbd, 0xa3, 0xd6, 0x78, 0x3e, 0x40, 0xff, 0xa8, 0xbe, 0xf1, 0x44, 0x52, 0x3e, 0x80, 0x68, 0x9c, 0x3e, 0xc3, 0x0f, 0xbc, 0xbd, 0xfb, 0xc3, 0xd9, 0xbb, 0x3f, 0x0a, 0x1f, 0x3d, 0xd7, 0xa6, 0x6c, 0xbe, 0xc4, 0x04, 0x90, 0xbe, 0xfc, 0x56, 0xf6, 0xbd, 0x06, 0xd1, 0x78, 0x3e, 0x53, 0xf0, 0x3b, 0x3e, 0xab, 0x19, 0xb3, 0x3d, 0x9e, 0x50, 0x5c, 0x3e, 0x03, 0x86, 0x1c, 0xbe, 0xf8, 0x0e, 0x81, 0xbd, 0x8e, 0x8d, 0x61, 0xbe, 0x16, 0x02, 0x38, 0x3e, 0xce, 0x07, 0x0b, 0x3e, 0xfa, 0xbd, 0xae, 0xbd, 0xb2, 0x42, 0xdd, 0xbd, 0x38, 0x10, 0x6d, 0xbe, 0x4d, 0x18, 0xa1, 0x3e, 0x3a, 0x12, 0x8f, 0x3d, 0x52, 0x87, 0x00, 0xbd, 0x05, 0x40, 0x8d, 0xbd, 0x9a, 0x33, 0x30, 0xbe, 0x60, 0x7a, 0x82, 0xbe, 0xc8, 0x7e, 0x30, 0x3e, 0xb7, 0xe1, 0xca, 0x3d, 0x82, 0xe7, 0x13, 0xbd, 0x46, 0x92, 0x78, 0xbe, 0xf1, 0x5e, 0x50, 0xbe, 0xa9, 0xd6, 0xf6, 0x3c, 0x4d, 0xfd, 0x12, 0x3e, 0xc6, 0x04, 0xac, 0x3c, 0x08, 0x2e, 0x9a, 0xbd, 0x9d, 0x73, 0x45, 0x3d, 0x52, 0x9d, 0x0f, 0x3e, 0x25, 0xd8, 0x9d, 0x3d, 0x82, 0x82, 0x71, 0xbe, 0xbd, 0x49, 0x65, 0xbe, 0x8d, 0x99, 0x23, 0xbc, 0xe4, 0x5f, 0xf2, 0x3d, 0xe6, 0xf9, 0x6f, 0xbe, 0x9e, 0xfe, 0xa6, 0xbe, 0xc4, 0x6f, 0x9d, 0xbd, 0x90, 0x7a, 0xdc, 0xbd, 0x5e, 0x91, 0x15, 0x3e, 0xf6, 0xa2, 0x23, 0xbc, 0x79, 0xe5, 0x19, 0xbd, 0xc4, 0xd9, 0x83, 0xbc, 0x87, 0xc8, 0x6e, 0xbe, 0x17, 0xda, 0x2d, 0xbd, 0xee, 0xd8, 0x53, 0xbc, 0x3a, 0xa1, 0xf8, 0xbc, 0x9a, 0x9b, 0x28, 0xbe, 0x02, 0x03, 0x23, 0xbe, 0xab, 0x47, 0x56, 0xbe, 0x5e, 0x7c, 0xa6, 0xbe, 0xa9, 0xd4, 0x4c, 0x3e, 0xa8, 0x0f, 0x4d, 0x3d, 0x7d, 0x39, 0x91, 0xbe, 0x9f, 0x75, 0xb3, 0x3d, 0xfa, 0x3f, 0x60, 0xbd, 0x72, 0x3f, 0xc9, 0x3d, 0x80, 0xbf, 0x3a, 0xbe, 0x57, 0x91, 0x21, 0xbe, 0x76, 0x5d, 0x2e, 0x3d, 0xfe, 0xed, 0x1c, 0xbd, 0x04, 0xfd, 0x2c, 0xbe, 0xb5, 0xba, 0xc2, 0x3d, 0x23, 0xb0, 0xbd, 0x3d, 0x0d, 0xe4, 0xb4, 0x3d, 0x78, 0x78, 0xeb, 0x3c, 0x01, 0x88, 0x9e, 0x3e, 0x33, 0x2a, 0x88, 0xbe, 0xfc, 0x58, 0xf7, 0xbb, 0x31, 0xc4, 0x28, 0x3e, 0x42, 0xd4, 0x5b, 0xbe, 0x71, 0xff, 0x9b, 0xbe, 0x39, 0x9f, 0x97, 0xbd, 0xbb, 0x09, 0x18, 0xbe, 0xb2, 0x72, 0x41, 0xbe, 0x31, 0x23, 0xac, 0x3d, 0xe1, 0x54, 0xb0, 0x3d, 0x11, 0xf2, 0x09, 0x3e, 0x41, 0xb4, 0x64, 0xbd, 0x6d, 0x2e, 0x4b, 0x3e, 0xf5, 0x57, 0xb4, 0x3d, 0x48, 0x0f, 0x3f, 0x3e, 0xcc, 0x44, 0x0a, 0x3d, 0x51, 0x36, 0x45, 0xbc, 0xd8, 0x4d, 0xac, 0xbe, 0x06, 0x0a, 0x71, 0xbe, 0x72, 0x35, 0xc6, 0xbd, 0x1e, 0x0e, 0xc3, 0xbe, 0x66, 0x78, 0x0f, 0x3e, 0x63, 0xeb, 0xd6, 0x3c, 0x86, 0x9c, 0x2b, 0xbe, 0x6b, 0xd1, 0xc9, 0x3d, 0x4e, 0xe2, 0x23, 0xbd, 0xb7, 0x2a, 0x0e, 0x3e, 0x00, 0xce, 0xb3, 0xbd, 0xb9, 0xbe, 0xda, 0x3d, 0xdf, 0xec, 0x9c, 0xbe, 0x88, 0x86, 0xb0, 0x3d, 0x2e, 0x15, 0x16, 0xbe, 0xb7, 0x39, 0x12, 0x3e, 0x48, 0x0f, 0xec, 0xb9, 0x3e, 0x06, 0x1b, 0xbe, 0xc9, 0x32, 0x4a, 0x3e, 0x68, 0x97, 0x52, 0x3e, 0xfd, 0x60, 0x71, 0xbe, 0xb4, 0x9c, 0x79, 0x3d, 0xd4, 0x4a, 0xad, 0xbe, 0x6c, 0x27, 0x07, 0xbd, 0x76, 0x22, 0x3b, 0xbe, 0x47, 0x80, 0x9b, 0xbd, 0xaf, 0x56, 0x28, 0xbe, 0x64, 0xf4, 0xd9, 0x3d, 0x60, 0x06, 0x8e, 0xbd, 0x22, 0x9e, 0x2d, 0xbe, 0xee, 0x5a, 0x16, 0xbe, 0xe1, 0x3b, 0x4c, 0xbd, 0xb2, 0x9d, 0xb3, 0x3d, 0xd9, 0xf8, 0x3f, 0xbe, 0xcf, 0xe9, 0xed, 0x3c, 0xc6, 0x9a, 0x93, 0xbe, 0x26, 0x48, 0x64, 0xbe, 0x7c, 0xfe, 0x4a, 0xbe, 0x31, 0x6a, 0x30, 0xbd, 0xec, 0xe9, 0x52, 0xbe, 0x54, 0x30, 0x74, 0x3d, 0x29, 0xfc, 0x40, 0xbe, 0x17, 0x47, 0x2b, 0x3e, 0xa9, 0x83, 0x32, 0x3e, 0xff, 0xcc, 0x57, 0x3e, 0x74, 0xaf, 0x20, 0x3d, 0xa9, 0xad, 0x2b, 0xbe, 0x0d, 0x01, 0xce, 0xbc, 0xae, 0xac, 0x60, 0xbe, 0xea, 0xe0, 0x78, 0x3e, 0x74, 0x26, 0xa6, 0x3d, 0xe1, 0xdd, 0x1b, 0xbe, 0xe7, 0x48, 0x96, 0xbc, 0xe0, 0x18, 0x8a, 0x3e, 0x8e, 0x3c, 0x86, 0x3e, 0x5b, 0x9f, 0x4d, 0xbe, 0x2c, 0x0f, 0xb8, 0xbc, 0xf2, 0x53, 0xa7, 0xbd, 0x46, 0xa4, 0xa1, 0xbe, 0xf4, 0xca, 0x28, 0xbd, 0xce, 0xf9, 0xe6, 0xbd, 0xaa, 0xdf, 0xe2, 0x3d, 0x1a, 0x8f, 0x8d, 0xbe, 0x68, 0x95, 0x8f, 0xbe, 0xe6, 0x3d, 0x41, 0x3e, 0x2d, 0x48, 0x97, 0xbe, 0x1b, 0x2c, 0x60, 0xbd, 0x80, 0x41, 0x72, 0xbe, 0xac, 0xb1, 0x39, 0xbe, 0xa7, 0xbd, 0x26, 0x3e, 0x1d, 0x05, 0x52, 0xbe, 0x7c, 0x5d, 0x3a, 0xbe, 0x17, 0x8c, 0x2f, 0xbe, 0x6d, 0x24, 0x16, 0x3e, 0x09, 0x27, 0x91, 0x3e, 0x50, 0x7b, 0x42, 0x3d, 0xa6, 0x85, 0x2c, 0xbe, 0x4e, 0x15, 0x01, 0xbe, 0x30, 0x63, 0x9f, 0xbc, 0x39, 0x4d, 0x4a, 0xbe, 0x58, 0x2b, 0xc8, 0xbc, 0xa6, 0x89, 0x9a, 0xbc, 0xa8, 0xbc, 0x96, 0x3d, 0x5f, 0xb3, 0x41, 0xbe, 0x33, 0x12, 0x94, 0x3e, 0xb1, 0xea, 0x84, 0xbe, 0xb8, 0x01, 0x83, 0xbe, 0x31, 0x3d, 0x9e, 0xbd, 0x1e, 0x31, 0x60, 0x3e, 0x6a, 0xd2, 0x20, 0x3e, 0x0f, 0x9f, 0x49, 0xbd, 0x5e, 0xa9, 0x8a, 0x3e, 0x88, 0xbb, 0x4d, 0xbe, 0x1a, 0x1e, 0x2e, 0xbe, 0x10, 0x02, 0x94, 0x3e, 0x23, 0x56, 0x40, 0xbe, 0x76, 0xfb, 0xbc, 0xbd, 0x86, 0xd1, 0x29, 0x3e, 0xd2, 0xcb, 0xc8, 0xbd, 0x48, 0xef, 0x47, 0x3d, 0x02, 0x86, 0x5d, 0xbe, 0x1c, 0x24, 0x5d, 0x3e, 0x7a, 0x05, 0x31, 0xbd, 0xd9, 0xda, 0xb7, 0xbb, 0xca, 0xc9, 0xe2, 0x3d, 0x3c, 0x4f, 0xc6, 0xbe, 0x70, 0x59, 0xc9, 0x3d, 0x6e, 0xe2, 0x20, 0xbe, 0x46, 0x4a, 0x39, 0x3c, 0x86, 0x43, 0x50, 0x3e, 0x1b, 0x69, 0x21, 0xbe, 0xa7, 0x7a, 0x15, 0xbd, 0x9b, 0x11, 0x37, 0x3e, 0x66, 0xe3, 0x11, 0x3e, 0xb8, 0x71, 0xb2, 0xbe, 0xe0, 0xcb, 0xfc, 0xbc, 0x32, 0xd0, 0xf5, 0x3d, 0x60, 0x4a, 0x37, 0x3e, 0x59, 0x56, 0x13, 0x3d, 0x67, 0x1b, 0x40, 0xbe, 0xca, 0x89, 0x93, 0xbe, 0xc3, 0x32, 0x59, 0x3e, 0x29, 0x44, 0x07, 0xbd, 0xe0, 0x79, 0x94, 0x3d, 0xcf, 0x06, 0xa2, 0x3d, 0x70, 0x65, 0x87, 0xbe, 0x37, 0xd1, 0xa4, 0xbd, 0x93, 0x9c, 0xb8, 0xbe, 0x9b, 0xc2, 0x45, 0xbe, 0x81, 0x66, 0x98, 0xbc, 0x95, 0x43, 0xd5, 0xbd, 0xf8, 0x9c, 0x2b, 0xbe, 0xd9, 0x93, 0xae, 0x3d, 0x0b, 0x9a, 0xa1, 0xbe, 0x01, 0x8f, 0x93, 0x3d, 0x00, 0x21, 0x9d, 0xbe, 0x8e, 0x27, 0x2c, 0x3e, 0x09, 0xe3, 0xd8, 0x3d, 0x50, 0xfb, 0x25, 0xbc, 0x66, 0xe3, 0x33, 0x3e, 0x7f, 0xe9, 0x55, 0xbc, 0x38, 0x95, 0x9f, 0xbe, 0x53, 0xb9, 0x0f, 0xbd, 0x78, 0xe7, 0x5c, 0x3e, 0x69, 0x73, 0x21, 0x3e, 0x68, 0xc1, 0x95, 0xbe, 0x39, 0x79, 0xad, 0xbd, 0xa6, 0x15, 0xcf, 0xbd, 0xf4, 0x49, 0x2a, 0xbe, 0xe7, 0x42, 0x26, 0x3e, 0xde, 0xc1, 0x76, 0xbd, 0x1b, 0x24, 0x15, 0x3e, 0x6f, 0x09, 0x46, 0xbe, 0xc7, 0xc7, 0xe4, 0xbd, 0x11, 0x13, 0x86, 0x3e, 0x15, 0x7b, 0x97, 0xbd, 0xc9, 0x81, 0x26, 0xbd, 0x81, 0x77, 0x73, 0xbe, 0x65, 0x44, 0x66, 0xbe, 0x95, 0x32, 0xa8, 0xbe, 0xc8, 0x66, 0x63, 0x3e, 0x68, 0xc8, 0x17, 0xbe, 0x8b, 0x02, 0x1b, 0xbe, 0x6d, 0xec, 0x1a, 0xbe, 0xd8, 0xe3, 0x7a, 0xbe, 0x68, 0x2b, 0x01, 0x3e, 0x41, 0x5b, 0x69, 0x3e, 0x54, 0x42, 0x01, 0x3e, 0xac, 0x9e, 0x73, 0x3d, 0xcd, 0xdb, 0x55, 0xbe, 0xd2, 0xa1, 0xb6, 0x3d, 0x24, 0xe0, 0xce, 0xbe, 0xc3, 0x19, 0x0c, 0xbe, 0x60, 0xc6, 0xcc, 0xbc, 0xef, 0x81, 0x89, 0x3e, 0x81, 0xde, 0xa5, 0x3d, 0x13, 0x6d, 0x71, 0x3d, 0x70, 0xfc, 0x16, 0x3d, 0xd6, 0xd0, 0x89, 0x3d, 0x54, 0xf7, 0x87, 0xbe, 0x83, 0x89, 0x52, 0xbe, 0x6f, 0xda, 0xb6, 0x3d, 0x24, 0x79, 0x9b, 0xbe, 0x20, 0xc2, 0xcb, 0x3e, 0xb8, 0xa7, 0xd5, 0xbd, 0x08, 0xa7, 0xa1, 0xbc, 0x3d, 0x0e, 0x3b, 0x3d, 0x27, 0x0d, 0xeb, 0xbd, 0x3e, 0x59, 0x6b, 0x3e, 0xeb, 0xf3, 0xaa, 0xbd, 0xd8, 0xf1, 0x8e, 0xbe, 0x9e, 0x2f, 0xc4, 0xbd, 0x68, 0x94, 0x69, 0x3e, 0xfc, 0x09, 0xcd, 0xbe, 0xe5, 0x01, 0xa2, 0x3d, 0x89, 0xaa, 0x85, 0x3e, 0x56, 0x31, 0x9d, 0xbc, 0xf9, 0xe5, 0x81, 0x3c, 0x71, 0x9a, 0x3c, 0xbe, 0x3b, 0xff, 0x4c, 0x3e, 0xa5, 0x2a, 0x93, 0xbd, 0xc9, 0xc7, 0x87, 0xbe, 0x1d, 0x7a, 0x7b, 0x3e, 0x46, 0xdd, 0x12, 0x3e, 0x90, 0xa3, 0x18, 0x3e, 0x53, 0xb5, 0xc6, 0xbd, 0xa4, 0xce, 0x2c, 0x3d, 0xd7, 0x75, 0x37, 0xbe, 0x8b, 0xe9, 0x30, 0x3d, 0x42, 0x96, 0x2e, 0x3e, 0xa5, 0x38, 0x5f, 0xbe, 0xf5, 0x29, 0xae, 0x3c, 0x06, 0x95, 0x57, 0xbe, 0xe6, 0x37, 0x82, 0xbe, 0x5f, 0x46, 0x2d, 0xbe, 0xac, 0x07, 0x3a, 0x3d, 0x0a, 0xee, 0x99, 0x3d, 0x5c, 0xfe, 0xf8, 0x3d, 0xad, 0x93, 0x9d, 0xbd, 0x16, 0x33, 0x12, 0x3d, 0x0d, 0x94, 0x17, 0xbe, 0x8c, 0xaf, 0x25, 0xbd, 0x50, 0x11, 0x73, 0x3e, 0xd9, 0x79, 0x6f, 0xbe, 0x3d, 0x13, 0xa3, 0xbd, 0x4b, 0x6f, 0x10, 0x3e, 0xe9, 0x43, 0x9d, 0xbe, 0xd4, 0xd8, 0xa7, 0xbd, 0xf5, 0x99, 0x0b, 0x3c, 0xd1, 0x08, 0x90, 0x3c, 0x47, 0x76, 0xc4, 0x3c, 0xcc, 0xb9, 0xb9, 0x3c, 0x56, 0x46, 0x3a, 0xbe, 0xee, 0xfc, 0x6a, 0x3b, 0x0b, 0x71, 0x23, 0xbe, 0xc2, 0xc9, 0xea, 0x3b, 0x24, 0xb3, 0x10, 0x3e, 0x99, 0xbb, 0x84, 0xbe, 0x2f, 0xdf, 0x01, 0xbe, 0x31, 0x94, 0x14, 0xbe, 0x50, 0x1d, 0x78, 0x3e, 0x5e, 0x45, 0xaf, 0xbe, 0xaa, 0x29, 0xd0, 0xbd, 0x72, 0xf4, 0xb8, 0x3c, 0xb9, 0x36, 0xdc, 0xbd, 0x9f, 0x2d, 0xe4, 0xba, 0x51, 0xf2, 0xc5, 0x3d, 0xbf, 0xce, 0x8e, 0xbb, 0x85, 0xbd, 0x39, 0x3e, 0x9d, 0xf1, 0x36, 0xbe, 0x40, 0x74, 0xe5, 0x3d, 0x06, 0x1c, 0xf2, 0xbd, 0xfc, 0x56, 0x5e, 0x3e, 0xad, 0x30, 0x2b, 0xbe, 0xfd, 0x40, 0x94, 0xbe, 0x3f, 0xe5, 0xf2, 0xbd, 0x64, 0x19, 0xcb, 0x3d, 0xbe, 0x77, 0xf4, 0x3c, 0xb8, 0x1e, 0x36, 0x3e, 0x27, 0x41, 0xdf, 0xbd, 0x26, 0x59, 0x85, 0x3e, 0x2c, 0x6d, 0x96, 0xbd, 0x09, 0xae, 0x8f, 0x3e, 0xc1, 0x5d, 0xcb, 0xbb, 0x46, 0x5b, 0xa5, 0xbe, 0x4d, 0xe4, 0x14, 0xbd, 0xb1, 0xbc, 0x13, 0xbd, 0x4c, 0xa4, 0x12, 0x3d, 0xd6, 0x39, 0x52, 0x3d, 0x0a, 0x94, 0x20, 0x3e, 0xb6, 0x7b, 0xd2, 0xbc, 0x79, 0x4a, 0xdb, 0xbe, 0x89, 0xf8, 0x8d, 0x3e, 0x96, 0x94, 0x9b, 0xbe, 0xcc, 0x26, 0x13, 0xbc, 0x86, 0xf0, 0x77, 0x3e, 0x98, 0xb7, 0xf8, 0x3c, 0x93, 0x52, 0xb5, 0xbd, 0x77, 0xe0, 0x1c, 0x3e, 0x1f, 0xc3, 0x6f, 0x3d, 0x50, 0x8a, 0x23, 0x3d, 0x46, 0xbb, 0x79, 0xbe, 0xef, 0x8a, 0xd2, 0xbc, 0xc6, 0x77, 0x9c, 0x3d, 0x7f, 0xa1, 0x5a, 0x3e, 0x7f, 0x82, 0x92, 0xbd, 0x7f, 0xbf, 0xf3, 0xbd, 0xa3, 0x7a, 0x30, 0x3e, 0x72, 0x7c, 0x76, 0xbe, 0x4b, 0x09, 0x0b, 0x3e, 0xab, 0xb9, 0x11, 0xbe, 0x6e, 0xc0, 0xaf, 0x3e, 0xc2, 0x83, 0xa8, 0xbe, 0xc2, 0x26, 0xdf, 0x3d, 0x4f, 0x99, 0x8b, 0xbe, 0x4f, 0x0d, 0x81, 0xbe, 0x08, 0x44, 0x6f, 0x3d, 0xfd, 0xbe, 0xf8, 0x3c, 0x6c, 0xfa, 0x4b, 0x3e, 0xf1, 0x74, 0x27, 0x3d, 0x98, 0xd5, 0xd7, 0x3d, 0xee, 0x04, 0xae, 0xbe, 0x7e, 0x76, 0x09, 0x3e, 0xa7, 0x6b, 0x84, 0xbe, 0xb3, 0x00, 0xa3, 0xbd, 0x07, 0x6e, 0x7b, 0x3e, 0x26, 0x51, 0xe4, 0x3d, 0x93, 0x03, 0x24, 0xbe, 0xfb, 0xc7, 0xd9, 0x3d, 0x0a, 0x6a, 0x03, 0x3e, 0x36, 0x66, 0x4a, 0x3e, 0xc0, 0xab, 0x76, 0xbd, 0xd0, 0x9e, 0xc1, 0x3c, 0xed, 0x0c, 0x92, 0xbe, 0x42, 0x5b, 0x42, 0xbe, 0x85, 0xc9, 0x33, 0x3e, 0x52, 0x5d, 0x29, 0x3e, 0xae, 0x6e, 0x6c, 0xbe, 0xe5, 0x08, 0x18, 0xbd, 0xc1, 0x08, 0x1b, 0xbe, 0x7a, 0x1b, 0x27, 0x3e, 0x1f, 0xb7, 0xd5, 0xbd, 0xdf, 0x84, 0x25, 0x3e, 0x96, 0xe4, 0x86, 0xbd, 0xb0, 0xdd, 0xf3, 0x3b, 0xa1, 0x73, 0xec, 0xbd, 0x7d, 0xac, 0x05, 0xbe, 0xad, 0x9a, 0xe5, 0xbd, 0xdd, 0x33, 0xfd, 0x3c, 0xe2, 0x05, 0x8a, 0xbe, 0x28, 0xbd, 0x8e, 0xbe, 0xbf, 0x35, 0xbc, 0x3d, 0x1d, 0xf4, 0x88, 0xbd, 0x75, 0x3f, 0xd0, 0xbd, 0xc9, 0x72, 0x62, 0xbd, 0x6d, 0xcc, 0x73, 0xbe, 0xe9, 0x4c, 0x3f, 0x3e, 0xe7, 0xeb, 0xae, 0x3d, 0xaa, 0xb0, 0x67, 0xbd, 0x19, 0x13, 0xdc, 0xbd, 0x66, 0x56, 0x5e, 0xbe, 0x17, 0x0c, 0xbb, 0x3d, 0xfc, 0x8b, 0x64, 0xbe, 0x40, 0x0a, 0xa6, 0x3c, 0x55, 0x3f, 0x64, 0x3e, 0x74, 0x33, 0x5c, 0x3c, 0xf3, 0x1b, 0x0d, 0x3c, 0x05, 0xec, 0x73, 0x3e, 0x85, 0x63, 0x80, 0xbd, 0x08, 0x7a, 0x01, 0x3e, 0x27, 0xf0, 0xd2, 0x3d, 0x50, 0xf9, 0x65, 0x3e, 0x16, 0xd1, 0x04, 0xbe, 0xee, 0x18, 0xe9, 0x3b, 0x33, 0x06, 0x2e, 0xbd, 0x0b, 0xce, 0xd2, 0xbd, 0x5b, 0x95, 0x19, 0xbc, 0x4f, 0xc6, 0x90, 0xbc, 0x6a, 0xc5, 0x40, 0x3e, 0x92, 0xb9, 0x40, 0x3e, 0x4e, 0x22, 0x57, 0xbe, 0x84, 0x8a, 0x9b, 0xbe, 0xec, 0x9f, 0x35, 0x3e, 0x5d, 0x3c, 0x9c, 0xbe, 0x6e, 0x3a, 0x3d, 0x3d, 0x67, 0xe5, 0x82, 0xbb, 0x06, 0xb5, 0x19, 0xbe, 0xf7, 0x91, 0xa8, 0xbe, 0xa5, 0x74, 0x1c, 0x3d, 0x1a, 0xb8, 0x9f, 0xbe, 0x1d, 0xa9, 0xba, 0xbd, 0xae, 0x2d, 0x18, 0xbe, 0xc6, 0x05, 0x36, 0x3d, 0x39, 0x8f, 0xad, 0x3d, 0x0c, 0xda, 0x6c, 0x3e, 0x6e, 0x34, 0x99, 0x3d, 0x93, 0x62, 0x72, 0xbe, 0xf5, 0xb0, 0xc3, 0x3d, 0x9b, 0xdf, 0x4a, 0xbe, 0xac, 0x6a, 0xfd, 0x3c, 0xc0, 0x3e, 0x97, 0x3d, 0xd6, 0xb7, 0xb3, 0xbd, 0x9a, 0xc2, 0x40, 0xbd, 0x24, 0xa8, 0x56, 0xbe, 0x9a, 0x1b, 0x12, 0x3e, 0x43, 0xb1, 0xe8, 0xbd, 0x88, 0xa7, 0x34, 0x3e, 0xc0, 0x25, 0x8d, 0xbc, 0xc2, 0x8a, 0x3c, 0xbe, 0xe0, 0x66, 0xae, 0xbc, 0x9e, 0x6d, 0x65, 0xbe, 0x8c, 0xe7, 0x2c, 0x3e, 0xd2, 0x8f, 0x60, 0x3e, 0xec, 0x74, 0x72, 0xbd, 0x54, 0x44, 0x17, 0xbe, 0x9a, 0x28, 0x2e, 0x3e, 0x38, 0x8b, 0x55, 0xbe, 0x83, 0x6f, 0x2f, 0xbe, 0x15, 0x37, 0x82, 0x3e, 0x74, 0x78, 0x97, 0x3d, 0x6a, 0x2b, 0x7d, 0xbe, 0x80, 0x70, 0x52, 0x3c, 0xff, 0x45, 0x66, 0xbe, 0x10, 0x50, 0x0a, 0x3e, 0x62, 0x05, 0x28, 0x3e, 0x07, 0xc7, 0x6d, 0xbe, 0x17, 0x24, 0x27, 0xbe, 0x4c, 0x8b, 0xe5, 0xbd, 0xc8, 0x05, 0x00, 0x3d, 0x78, 0x03, 0xd2, 0x3d, 0x37, 0x84, 0x5b, 0xbe, 0xac, 0x53, 0x0d, 0x3e, 0xc2, 0xc8, 0x66, 0xbe, 0x86, 0x9f, 0x62, 0x3e, 0x60, 0x67, 0x3d, 0xbc, 0x9a, 0x3e, 0x7d, 0x3e, 0x11, 0xbf, 0x91, 0x3e, 0xbe, 0xec, 0xd2, 0xbd, 0x6b, 0xf2, 0x9b, 0xbe, 0xc1, 0x18, 0x2e, 0xbe, 0x77, 0xfe, 0x14, 0x3d, 0x54, 0x7d, 0x48, 0x3e, 0x24, 0x40, 0x46, 0xbe, 0xef, 0x79, 0x7b, 0x3a, 0x61, 0xfe, 0x24, 0x3e, 0x00, 0x47, 0xf9, 0xbc, 0x47, 0xa8, 0x21, 0xbe, 0xf3, 0x66, 0x2e, 0xbc, 0xbb, 0x39, 0x7e, 0xbd, 0xbb, 0xa2, 0x92, 0xbe, 0xc7, 0x29, 0xe1, 0x3d, 0x3b, 0x63, 0xa7, 0xbe, 0x17, 0x84, 0x4d, 0x3e, 0x2b, 0x2d, 0x8f, 0xbd, 0xbe, 0x0b, 0xb8, 0x3d, 0xcd, 0x6d, 0xa0, 0xbd, 0xea, 0x8c, 0xfa, 0x3d, 0xcf, 0x98, 0x86, 0x3c, 0x89, 0x50, 0xe4, 0x3d, 0x2b, 0x2c, 0x9e, 0x3c, 0xa8, 0x0c, 0x88, 0xbe, 0x01, 0xb4, 0x93, 0xbd, 0xa6, 0xa8, 0x64, 0x3e, 0xa3, 0xea, 0x07, 0xbe, 0x70, 0x68, 0x8b, 0xbe, 0x1b, 0xde, 0x17, 0xbd, 0x90, 0x04, 0x71, 0x3d, 0x4b, 0x58, 0x3e, 0x3e, 0x0e, 0x61, 0x91, 0xbe, 0x6c, 0x4a, 0x1e, 0x3d, 0xc7, 0xf3, 0x5d, 0x3c, 0xcb, 0xe4, 0x8d, 0xbe, 0xf5, 0x62, 0x17, 0x3d, 0xaa, 0xeb, 0x03, 0x3e, 0xa7, 0x51, 0x01, 0xbe, 0xeb, 0xc7, 0x1a, 0x3d, 0xbc, 0xfd, 0x19, 0x3e, 0xeb, 0xab, 0xbe, 0xbe, 0x0c, 0x6b, 0x16, 0x3e, 0x9d, 0xff, 0x40, 0xbe, 0x1c, 0xc2, 0x1a, 0x3e, 0xbd, 0x49, 0xf4, 0x3d, 0x98, 0x53, 0x5f, 0x3e, 0x8b, 0xfe, 0x8c, 0xbd, 0xfa, 0x86, 0x5e, 0xbd, 0xe8, 0x13, 0x35, 0x3e, 0x51, 0xa4, 0x96, 0xbe, 0xef, 0x02, 0xdf, 0x3d, 0x97, 0x5a, 0x72, 0xbe, 0x69, 0x8e, 0xbd, 0xbd, 0xf6, 0x7b, 0xf9, 0xbd, 0x0f, 0x7e, 0x22, 0x3e, 0x97, 0x8d, 0x11, 0x3e, 0x38, 0xb5, 0xca, 0xbd, 0xa2, 0xe3, 0xb4, 0xbe, 0xba, 0x0e, 0x28, 0xbe, 0x9b, 0x09, 0x66, 0xbe, 0x60, 0x68, 0x47, 0x3a, 0xf6, 0xc7, 0x06, 0xbe, 0x1a, 0x5b, 0xb4, 0xbd, 0xa9, 0x4a, 0xe7, 0xbd, 0xd3, 0x51, 0x1b, 0xbd, 0xa3, 0xa5, 0x10, 0x3d, 0x6f, 0xfa, 0x56, 0xbe, 0x6a, 0x15, 0x76, 0xbe, 0x7c, 0x64, 0xdd, 0xbd, 0x18, 0xe5, 0x92, 0xbe, 0xce, 0x14, 0xb7, 0xbd, 0x32, 0x87, 0x4b, 0x3e, 0x92, 0xee, 0xec, 0xbd, 0xea, 0x75, 0x7f, 0xbe, 0xc0, 0xd6, 0x60, 0xbc, 0x25, 0xb3, 0x3d, 0xbe, 0xa2, 0xf9, 0x02, 0xbe, 0x00, 0x6e, 0xcf, 0x3b, 0xc2, 0x43, 0x86, 0xbe, 0xae, 0x4e, 0x2c, 0xbe, 0xb3, 0xb6, 0x83, 0x3e, 0xc2, 0x02, 0x09, 0x3e, 0x9b, 0x88, 0x41, 0xbe, 0x14, 0x10, 0x42, 0x3e, 0x67, 0x78, 0x04, 0xbe, 0x7a, 0xf2, 0xe8, 0xbd, 0x40, 0xd4, 0xa1, 0x3c, 0x82, 0xe0, 0x89, 0xbe, 0xfc, 0x8c, 0x89, 0x3d, 0x50, 0xb9, 0xcb, 0xbd, 0x04, 0x54, 0x3f, 0x3e, 0x00, 0x32, 0xf9, 0x3b, 0xd2, 0x77, 0x8b, 0xbe, 0x10, 0x6a, 0x51, 0x3d, 0x06, 0x81, 0x39, 0x3e, 0x86, 0x50, 0x4b, 0x3e, 0x00, 0x57, 0x77, 0xbc, 0xa6, 0xae, 0xb5, 0xbd, 0x68, 0xf7, 0x1e, 0x3e, 0x0e, 0x4b, 0x40, 0x3c, 0xdc, 0xd5, 0x04, 0x3e, 0x0a, 0x54, 0x40, 0x3e, 0x31, 0xe0, 0xce, 0xbd, 0x2e, 0xab, 0xaa, 0xbe, 0xb4, 0xdc, 0x18, 0xbe, 0x69, 0x66, 0xf5, 0x3d, 0x6e, 0x59, 0xdf, 0x3d, 0x71, 0x44, 0x2f, 0xbe, 0xf8, 0x3e, 0x51, 0x3e, 0x61, 0x4b, 0x58, 0xbd, 0x2c, 0x1e, 0x99, 0xbe, 0x6a, 0x80, 0x5f, 0xbe, 0x7c, 0x55, 0xa9, 0xbe, 0xc6, 0x5f, 0x8c, 0xbe, 0x07, 0xe3, 0x20, 0xbe, 0xd4, 0xb2, 0xe2, 0x3d, 0xce, 0xa1, 0x11, 0x3d, 0x24, 0xbd, 0x74, 0xbe, 0xdc, 0x82, 0xb2, 0xbe, 0x51, 0x5d, 0xf6, 0xbd, 0x91, 0x0d, 0xc8, 0xbb, 0x95, 0xa9, 0x31, 0xbe, 0x8e, 0x68, 0x33, 0x3e, 0x25, 0xfc, 0x22, 0x3e, 0x02, 0xad, 0x0c, 0x3c, 0x12, 0x9b, 0x50, 0x3e, 0xd1, 0x6d, 0xaa, 0x3b, 0xb5, 0xda, 0x43, 0x3e, 0x72, 0x80, 0x43, 0xbe, 0xce, 0xe2, 0x1e, 0xbe, 0x02, 0x40, 0xc3, 0x3d, 0xe7, 0xc8, 0x0a, 0x3d, 0x8b, 0xa4, 0x10, 0xbc, 0x73, 0xaa, 0xdb, 0xb7, 0xa2, 0x6f, 0x95, 0xbe, 0xa8, 0xcf, 0x0e, 0x3e, 0xa0, 0x85, 0x45, 0x3d, 0x43, 0x19, 0x7a, 0xbe, 0x33, 0xdb, 0x1f, 0x3e, 0x1c, 0x33, 0xa6, 0xbd, 0xa6, 0x8b, 0x24, 0xbe, 0xfa, 0xc8, 0x61, 0x3b, 0x1c, 0x87, 0xc8, 0x3d, 0x1f, 0x0a, 0x26, 0xbe, 0xb6, 0x9d, 0x88, 0xbe, 0x01, 0x1e, 0x1d, 0xbe, 0xe4, 0x92, 0x0a, 0x3d, 0x83, 0xb0, 0x4c, 0x3e, 0xd5, 0x4a, 0xe9, 0x3c, 0x75, 0xe2, 0x8a, 0xbe, 0xc9, 0x18, 0x9e, 0x3e, 0x70, 0x92, 0xa2, 0xbe, 0x28, 0x86, 0xf8, 0xbd, 0x1a, 0x46, 0x68, 0xbe, 0x24, 0xa8, 0x72, 0x3e, 0x25, 0x94, 0x83, 0x3d, 0x5f, 0x5e, 0xe4, 0x3d, 0xed, 0xf0, 0xb6, 0x3e, 0xd2, 0x0a, 0xa0, 0x3e, 0x0e, 0x57, 0xae, 0x3e, 0xf7, 0x86, 0xaa, 0x3e, 0x62, 0x66, 0xd5, 0x3e, 0x7f, 0x0e, 0x51, 0x3d, 0xa0, 0x7c, 0xcc, 0xbd, 0xca, 0x5b, 0x3f, 0xbe, 0xe0, 0x24, 0x4e, 0x3d, 0x96, 0x06, 0x61, 0xbe, 0x2e, 0x16, 0x55, 0x3e, 0x12, 0x9f, 0x9a, 0xbd, 0xf5, 0x71, 0x57, 0xbe, 0x38, 0xcd, 0x53, 0xbe, 0x58, 0x93, 0x7e, 0x3d, 0x60, 0xa4, 0x95, 0x3d, 0x79, 0x4c, 0x2d, 0xbe, 0xde, 0x87, 0x0a, 0xbe, 0xf8, 0xb7, 0x41, 0x3e, 0x37, 0x7b, 0x1f, 0xbe, 0x42, 0x72, 0x80, 0xbd, 0x60, 0xce, 0x97, 0xbc, 0xb2, 0x07, 0x18, 0x3e, 0xc0, 0xc6, 0x89, 0xbe, 0x2f, 0x6f, 0x91, 0xbe, 0xa0, 0x91, 0xc7, 0xbc, 0x26, 0x8b, 0x54, 0xbe, 0x52, 0xf7, 0x55, 0x3e, 0x09, 0x71, 0x68, 0xbe, 0xd2, 0xf4, 0x33, 0x3e, 0xb8, 0xb5, 0x6e, 0xbd, 0x30, 0xf2, 0x3b, 0x3d, 0x40, 0x2c, 0x6b, 0xbe, 0x10, 0xc8, 0x3e, 0x3d, 0x68, 0xcc, 0x2a, 0xbe, 0xa0, 0xee, 0xc4, 0xbc, 0x5b, 0xb1, 0x83, 0x3e, 0x16, 0x1a, 0x1a, 0xbe, 0x21, 0x15, 0x84, 0xbc, 0x6d, 0x23, 0xac, 0x3d, 0x73, 0x8a, 0x79, 0xbe, 0xa4, 0x89, 0x7c, 0xbe, 0x91, 0x73, 0x24, 0xbe, 0x8b, 0x5a, 0x56, 0xbe, 0x49, 0xdc, 0xef, 0x3d, 0x95, 0xa8, 0xb5, 0xbc, 0x24, 0x51, 0x0c, 0x3e, 0xe0, 0x3e, 0x4f, 0x3e, 0xd8, 0x0f, 0x27, 0xbe, 0x48, 0xe9, 0x54, 0x3e, 0x61, 0xa1, 0x68, 0xbe, 0x71, 0x06, 0x1b, 0x3e, 0x08, 0x88, 0x32, 0xbc, 0x31, 0x30, 0x99, 0xbb, 0x63, 0x57, 0x8f, 0x3c, 0xe3, 0xbc, 0x84, 0xbd, 0x5c, 0x5f, 0x65, 0x3e, 0xca, 0xa1, 0x4b, 0xbe, 0x68, 0x9e, 0x91, 0xbe, 0x88, 0xb0, 0x19, 0xbe, 0x2e, 0x63, 0x8b, 0x3c, 0x4e, 0x15, 0x8a, 0xbe, 0x2e, 0xef, 0x48, 0xbe, 0xa6, 0x31, 0x3a, 0x3d, 0xac, 0x49, 0xd2, 0x3d, 0xc9, 0x73, 0x6d, 0xbe, 0x1a, 0x4e, 0x90, 0xbe, 0x39, 0x17, 0x77, 0x3b, 0x24, 0xb3, 0xd4, 0x3d, 0x46, 0x8b, 0x24, 0x3e, 0x3c, 0x13, 0xfe, 0xbd, 0x1a, 0xbb, 0x32, 0xbd, 0x59, 0x78, 0x10, 0x3e, 0x27, 0x09, 0xce, 0x3d, 0xea, 0x25, 0x8b, 0xbe, 0xca, 0x00, 0xb5, 0xbe, 0x0e, 0x8b, 0x5d, 0x3e, 0x34, 0x2d, 0xd8, 0xbd, 0x5c, 0x4f, 0x19, 0x3e, 0x1f, 0xc1, 0x90, 0x3e, 0x1d, 0xe8, 0x88, 0xbe, 0x1e, 0x21, 0xf6, 0x3d, 0x41, 0x10, 0x70, 0xbd, 0x07, 0x58, 0x64, 0xbe, 0xcf, 0x23, 0x80, 0x3d, 0x32, 0xaf, 0x83, 0xbe, 0x7f, 0x3b, 0xae, 0xbe, 0x43, 0x80, 0x78, 0x3e, 0x28, 0x3c, 0x70, 0x3d, 0xfb, 0xbc, 0x84, 0xbe, 0x27, 0x14, 0x8b, 0xbe, 0xe7, 0x6f, 0xb3, 0x3e, 0xe1, 0xb6, 0xf7, 0xbc, 0xa9, 0xa2, 0x67, 0xbe, 0x32, 0xff, 0xeb, 0x3c, 0xba, 0xc3, 0xec, 0x3d, 0x4c, 0x6d, 0x60, 0xbe, 0x7c, 0x05, 0x45, 0x3e, 0x42, 0x6f, 0xa0, 0xbe, 0xe5, 0x3e, 0x0b, 0xbd, 0x6f, 0x32, 0xc5, 0xbb, 0x9b, 0x0a, 0x0c, 0x3e, 0xbf, 0x1c, 0x33, 0x3e, 0x33, 0x3e, 0x39, 0xbe, 0xde, 0x5f, 0x0b, 0xbe, 0x0f, 0x0a, 0xad, 0x3d, 0x2e, 0x68, 0x1f, 0x3e, 0xac, 0xa5, 0xce, 0x3b, 0xfa, 0x2b, 0xdf, 0xbc, 0x31, 0x2f, 0x73, 0xbe, 0x4e, 0xa8, 0x38, 0x3e, 0xcb, 0x25, 0x14, 0x3e, 0xdd, 0x71, 0xd3, 0x3d, 0x54, 0x69, 0x99, 0xbd, 0x5c, 0xd6, 0x16, 0x3d, 0x07, 0xe5, 0xaa, 0xbe, 0x06, 0xb5, 0x21, 0xbe, 0x6b, 0x6d, 0x52, 0xbe, 0xe1, 0x7a, 0x0a, 0xbe, 0xa0, 0xa5, 0x2f, 0xbe, 0xef, 0x7f, 0x90, 0xbc, 0xd1, 0x46, 0x8a, 0x3d, 0x9a, 0x03, 0x71, 0x3e, 0xf2, 0x51, 0x3e, 0xbe, 0xec, 0x7f, 0x3a, 0xbe, 0xd4, 0xf6, 0xa1, 0xbe, 0x61, 0x61, 0x53, 0x3e, 0xf6, 0x1e, 0x2c, 0x3d, 0x6a, 0xd1, 0xea, 0xbd, 0x2c, 0x8e, 0x94, 0x3d, 0x5e, 0x93, 0x01, 0xbd, 0x05, 0x44, 0x08, 0xbe, 0xf5, 0xd6, 0x8d, 0xbd, 0x0e, 0xc8, 0x15, 0xbe, 0xe8, 0xef, 0x14, 0xbd, 0x70, 0xd8, 0xe7, 0xbd, 0x56, 0x1f, 0x8e, 0xbe, 0x7d, 0x82, 0x1d, 0xbe, 0x54, 0x53, 0x20, 0x3e, 0xa8, 0x03, 0x49, 0xbd, 0xa6, 0x1b, 0x97, 0xbd, 0xe0, 0x08, 0x6d, 0x3c, 0x38, 0xeb, 0xb7, 0x3d, 0xc0, 0x8f, 0x9b, 0xbe, 0xe0, 0x24, 0xf8, 0xbd, 0x2f, 0x9a, 0x90, 0xbe, 0x87, 0xb9, 0x08, 0xbe, 0xe1, 0xa6, 0x58, 0xbe, 0x9a, 0x57, 0xde, 0xbd, 0xf6, 0x3e, 0x92, 0xbd, 0xac, 0xb7, 0x5b, 0xbe, 0x8c, 0xfd, 0x11, 0x3e, 0xd7, 0x6c, 0x9c, 0x3e, 0x52, 0x59, 0x95, 0xbe, 0x00, 0x3a, 0x18, 0xbd, 0xd2, 0x61, 0x4f, 0x3e, 0x6a, 0xc1, 0xa3, 0xbd, 0xd1, 0x44, 0x96, 0xbe, 0x9b, 0xcd, 0x48, 0xbe, 0xe0, 0x3f, 0x87, 0xbc, 0x40, 0xf8, 0xe1, 0x3c, 0x20, 0xcc, 0x05, 0xbc, 0x78, 0x2d, 0x46, 0x3e, 0x00, 0x71, 0x88, 0xbd, 0x58, 0x58, 0x43, 0xbe, 0x86, 0x7f, 0x40, 0x3e, 0xab, 0x88, 0x69, 0x3e, 0x2d, 0xd1, 0xf0, 0x3c, 0x87, 0x54, 0x7c, 0xbe, 0x3b, 0x7a, 0xf6, 0x3c, 0xf3, 0x2f, 0x6b, 0xbe, 0x8f, 0xa9, 0x1c, 0x3e, 0x00, 0x85, 0x7b, 0xbd, 0x6f, 0x10, 0x1c, 0x3e, 0x27, 0x92, 0x38, 0x3e, 0xfa, 0x42, 0x36, 0xbe, 0xce, 0x06, 0xa6, 0xbe, 0x05, 0x1b, 0x5d, 0xbe, 0x88, 0xcd, 0x67, 0xbe, 0x21, 0x32, 0x54, 0xbe, 0x22, 0x1d, 0xe8, 0xbd, 0xee, 0xff, 0x17, 0x3e, 0xa3, 0x0d, 0xed, 0xbd, 0xba, 0xc3, 0x9d, 0xbd, 0xa6, 0x9f, 0xea, 0xbc, 0xbd, 0x16, 0x05, 0x3e, 0xcf, 0x0c, 0x36, 0xbe, 0x92, 0xf1, 0x3b, 0x3e, 0x4d, 0x9a, 0xcd, 0xbc, 0xab, 0xcd, 0x1c, 0xbe, 0xec, 0xb3, 0x97, 0xbd, 0xba, 0x7a, 0xea, 0xbd, 0xf9, 0xf0, 0xc1, 0x3d, 0x8c, 0xfd, 0x74, 0x3e, 0xac, 0xf9, 0x17, 0x3e, 0xb0, 0xf4, 0x65, 0xbe, 0x17, 0x8b, 0x28, 0x3e, 0x77, 0x30, 0x9d, 0xbe, 0x2f, 0x6e, 0x5a, 0xbe, 0x64, 0x1a, 0xcd, 0x3d, 0xf4, 0x6e, 0x1e, 0x3e, 0x26, 0xad, 0x69, 0xbd, 0x8e, 0x5a, 0x5e, 0x3e, 0x39, 0x0f, 0x1d, 0xbe, 0xe9, 0x8d, 0x51, 0xbe, 0xbc, 0x84, 0x05, 0x3e, 0x18, 0x56, 0xc9, 0xbd, 0x05, 0x57, 0x8a, 0xbd, 0x3a, 0x02, 0x84, 0x3d, 0xa4, 0x93, 0x8a, 0xbd, 0xd0, 0x67, 0x96, 0xbe, 0x62, 0x2e, 0x0f, 0x3e, 0x84, 0x55, 0x56, 0x3e, 0x2b, 0xd9, 0xad, 0x3d, 0x38, 0xe1, 0x30, 0xbe, 0x62, 0xd1, 0x0d, 0xbe, 0x0d, 0xfd, 0x37, 0xbe, 0xfc, 0x46, 0x2d, 0xba, 0x56, 0xbf, 0x71, 0x3e, 0xc9, 0x2d, 0x64, 0x3e, 0xb3, 0x01, 0x69, 0xbe, 0xfe, 0xb9, 0x78, 0xbe, 0x9a, 0x17, 0xb9, 0xbd, 0xfd, 0x51, 0xe0, 0xbd, 0xfe, 0xbe, 0x4e, 0xbe, 0xbf, 0xbf, 0xf6, 0xbc, 0xdf, 0x95, 0x80, 0xbe, 0x04, 0x40, 0x51, 0xbb, 0x73, 0xf5, 0x31, 0xbd, 0x01, 0x4b, 0x94, 0xbe, 0x22, 0xfe, 0xff, 0xff, 0x10, 0x00, 0x00, 0x00, 0x05, 0x00, 0x00, 0x00, 0x14, 0x00, 0x00, 0x00, 0x2c, 0x00, 0x00, 0x00, 0x02, 0x00, 0x00, 0x00, 0x20, 0x00, 0x00, 0x00, 0x20, 0x00, 0x00, 0x00, 0x17, 0x00, 0x00, 0x00, 0x73, 0x65, 0x71, 0x75, 0x65, 0x6e, 0x74, 0x69, 0x61, 0x6c, 0x2f, 0x64, 0x65, 0x6e, 0x73, 0x65, 0x2f, 0x4d, 0x61, 0x74, 0x4d, 0x75, 0x6c, 0x00, 0xa0, 0xfd, 0xff, 0xff, 0xf6, 0xfe, 0xff, 0xff, 0x04, 0x00, 0x00, 0x00, 0x0c, 0x00, 0x00, 0x00, 0x15, 0x6b, 0x3d, 0x3f, 0xc0, 0x23, 0x0f, 0x3e, 0x4b, 0x8d, 0x7a, 0xbf, 0x7a, 0xfe, 0xff, 0xff, 0x10, 0x00, 0x00, 0x00, 0x04, 0x00, 0x00, 0x00, 0x10, 0x00, 0x00, 0x00, 0x44, 0x00, 0x00, 0x00, 0x01, 0x00, 0x00, 0x00, 0x03, 0x00, 0x00, 0x00, 0x32, 0x00, 0x00, 0x00, 0x73, 0x65, 0x71, 0x75, 0x65, 0x6e, 0x74, 0x69, 0x61, 0x6c, 0x2f, 0x64, 0x65, 0x6e, 0x73, 0x65, 0x5f, 0x32, 0x2f, 0x42, 0x69, 0x61, 0x73, 0x41, 0x64, 0x64, 0x2f, 0x52, 0x65, 0x61, 0x64, 0x56, 0x61, 0x72, 0x69, 0x61, 0x62, 0x6c, 0x65, 0x4f, 0x70, 0x2f, 0x72, 0x65, 0x73, 0x6f, 0x75, 0x72, 0x63, 0x65, 0x00, 0x00, 0x10, 0xfe, 0xff, 0xff, 0x66, 0xff, 0xff, 0xff, 0x04, 0x00, 0x00, 0x00, 0x30, 0x00, 0x00, 0x00, 0x15, 0x8b, 0x79, 0xbe, 0xd7, 0xfa, 0xba, 0xbf, 0x9a, 0x5e, 0x11, 0xbd, 0xf2, 0x80, 0xb9, 0xbe, 0x82, 0x1a, 0x29, 0xbe, 0xf4, 0xe6, 0x30, 0xbf, 0xf4, 0x40, 0x0f, 0xbf, 0x43, 0xc7, 0x0b, 0xbf, 0x14, 0xfb, 0x65, 0xbf, 0x4f, 0xa6, 0xcc, 0xbe, 0xce, 0xdb, 0x14, 0xbf, 0x94, 0xb1, 0x8d, 0xbf, 0x0e, 0xff, 0xff, 0xff, 0x10, 0x00, 0x00, 0x00, 0x03, 0x00, 0x00, 0x00, 0x10, 0x00, 0x00, 0x00, 0x48, 0x00, 0x00, 0x00, 0x01, 0x00, 0x00, 0x00, 0x0c, 0x00, 0x00, 0x00, 0x32, 0x00, 0x00, 0x00, 0x73, 0x65, 0x71, 0x75, 0x65, 0x6e, 0x74, 0x69, 0x61, 0x6c, 0x2f, 0x64, 0x65, 0x6e, 0x73, 0x65, 0x5f, 0x31, 0x2f, 0x42, 0x69, 0x61, 0x73, 0x41, 0x64, 0x64, 0x2f, 0x52, 0x65, 0x61, 0x64, 0x56, 0x61, 0x72, 0x69, 0x61, 0x62, 0x6c, 0x65, 0x4f, 0x70, 0x2f, 0x72, 0x65, 0x73, 0x6f, 0x75, 0x72, 0x63, 0x65, 0x00, 0x00, 0x04, 0x00, 0x06, 0x00, 0x04, 0x00, 0x00, 0x00, 0x00, 0x00, 0x06, 0x00, 0x08, 0x00, 0x04, 0x00, 0x06, 0x00, 0x00, 0x00, 0x04, 0x00, 0x00, 0x00, 0x80, 0x00, 0x00, 0x00, 0xbc, 0xc9, 0x0f, 0xbe, 0x00, 0x00, 0x00, 0x00, 0x00, 0x00, 0x00, 0x00, 0xae, 0x15, 0xc7, 0xbc, 0xc9, 0x3d, 0x03, 0xbe, 0xef, 0xee, 0xda, 0xbd, 0x11, 0x7c, 0xbb, 0x3c, 0xec, 0x59, 0xcd, 0xbd, 0x2f, 0x93, 0x61, 0xbd, 0x00, 0xe7, 0x40, 0xbc, 0x0a, 0x21, 0x06, 0xbe, 0x9a, 0x58, 0x53, 0xbd, 0xe4, 0x5f, 0x4d, 0xbe, 0x1a, 0xdf, 0x4f, 0xbd, 0x2f, 0xb6, 0xd0, 0xbd, 0xd6, 0x16, 0xd4, 0xbe, 0x8d, 0x19, 0x18, 0xbd, 0x54, 0x1a, 0xb6, 0xbb, 0x73, 0x7c, 0xc2, 0xbd, 0x00, 0x00, 0x00, 0x00, 0x25, 0xf9, 0x15, 0xbe, 0x99, 0x63, 0x1b, 0xbd, 0x00, 0x00, 0x00, 0x00, 0xb9, 0xa6, 0x79, 0xbd, 0x1b, 0x37, 0xc1, 0xbe, 0x00, 0x00, 0x00, 0x00, 0xc3, 0xeb, 0xd9, 0xbd, 0x18, 0xa5, 0x8c, 0xbc, 0xec, 0x11, 0x88, 0xbd, 0x00, 0x00, 0x00, 0x00, 0x50, 0x3d, 0x1a, 0xbd, 0x3d, 0xe6, 0x51, 0xbd, 0x00, 0x00, 0x0e, 0x00, 0x14, 0x00, 0x04, 0x00, 0x00, 0x00, 0x08, 0x00, 0x0c, 0x00, 0x10, 0x00, 0x0e, 0x00, 0x00, 0x00, 0x10, 0x00, 0x00, 0x00, 0x02, 0x00, 0x00, 0x00, 0x10, 0x00, 0x00, 0x00, 0x44, 0x00, 0x00, 0x00, 0x01, 0x00, 0x00, 0x00, 0x20, 0x00, 0x00, 0x00, 0x30, 0x00, 0x00, 0x00, 0x73, 0x65, 0x71, 0x75, 0x65, 0x6e, 0x74, 0x69, 0x61, 0x6c, 0x2f, 0x64, 0x65, 0x6e, 0x73, 0x65, 0x2f, 0x42, 0x69, 0x61, 0x73, 0x41, 0x64, 0x64, 0x2f, 0x52, 0x65, 0x61, 0x64, 0x56, 0x61, 0x72, 0x69, 0x61, 0x62, 0x6c, 0x65, 0x4f, 0x70, 0x2f, 0x72, 0x65, 0x73, 0x6f, 0x75, 0x72, 0x63, 0x65, 0x00, 0x00, 0x00, 0x00, 0xa4, 0xff, 0xff, 0xff, 0x14, 0x00, 0x18, 0x00, 0x04, 0x00, 0x00, 0x00, 0x08, 0x00, 0x0c, 0x00, 0x10, 0x00, 0x00, 0x00, 0x00, 0x00, 0x14, 0x00, 0x14, 0x00, 0x00, 0x00, 0x14, 0x00, 0x00, 0x00, 0x01, 0x00, 0x00, 0x00, 0x24, 0x00, 0x00, 0x00, 0x30, 0x00, 0x00, 0x00, 0x10, 0x00, 0x00, 0x00, 0x02, 0x00, 0x00, 0x00, 0x01, 0x00, 0x00, 0x00, 0x20, 0x00, 0x00, 0x00, 0x02, 0x00, 0x00, 0x00, 0xff, 0xff, 0xff, 0xff, 0x20, 0x00, 0x00, 0x00, 0x0b, 0x00, 0x00, 0x00, 0x64, 0x65, 0x6e, 0x73, 0x65, 0x5f, 0x69, 0x6e, 0x70, 0x75, 0x74, 0x00, 0xfc, 0xff, 0xff, 0xff, 0x04, 0x00, 0x04, 0x00, 0x04, 0x00, 0x00, 0x00};
const int model_data_len = 7740;